{
	"version": "1.0",
	"truncation": null,
	"padding": null,
	"added_tokens": [
		{
			"id": 0,
			"content": "<bos>",
			"single_word": false,
			"lstrip": false,
			"rstrip": false,
			"normalized": false,
			"special": true
		},
		{
			"id": 1,
			"content": "<eos>",
			"single_word": false,
			"lstrip": false,
			"rstrip": false,
			"normalized": false,
			"special": true
		},
		{
			"id": 2,
			"content": "<pad>",
			"single_word": false,
			"lstrip": false,
			"rstrip": false,
			"normalized": false,
			"special": true
		},
		{
			"id": 3,
			"content": "<unk>",
			"single_word": false,
			"lstrip": false,
			"rstrip": false,
			"normalized": false,
			"special": true
		},
		{
			"id": 4,
			"content": "<mask>",
			"single_word": false,
			"lstrip": false,
			"rstrip": false,
			"normalized": false,
			"special": true
		},
		{
			"id": 5,
			"content": "<0x00>",
			"single_word": false,
			"lstrip": false,
			"rstrip": false,
			"normalized": true,
			"special": false
		},
		{
			"id": 6,
			"content": "<0x01>",
			"single_word": false,
			"lstrip": false,
			"rstrip": false,
			"normalized": true,
			"special": false
		},
		{
			"id": 7,
			"content": "<0x02>",
			"single_word": false,
			"lstrip": false,
			"rstrip": false,
			"normalized": true,
			"special": false
		},
		{
			"id": 8,
			"content": "<0x03>",
			"single_word": false,
			"lstrip": false,
			"rstrip": false,
			"normalized": true,
			"special": false
		},
		{
			"id": 9,
			"content": "<0x04>",
			"single_word": false,
			"lstrip": false,
			"rstrip": false,
			"normalized": true,
			"special": false
		},
		{
			"id": 10,
			"content": "<0x05>",
			"single_word": false,
			"lstrip": false,
			"rstrip": false,
			"normalized": true,
			"special": false
		},
		{
			"id": 11,
			"content": "<0x06>",
			"single_word": false,
			"lstrip": false,
			"rstrip": false,
			"normalized": true,
			"special": false
		},
		{
			"id": 12,
			"content": "<0x07>",
			"single_word": false,
			"lstrip": false,
			"rstrip": false,
			"normalized": true,
			"special": false
		},
		{
			"id": 13,
			"content": "<0x08>",
			"single_word": false,
			"lstrip": false,
			"rstrip": false,
			"normalized": true,
			"special": false
		},
		{
			"id": 14,
			"content": "<0x09>",
			"single_word": false,
			"lstrip": false,
			"rstrip": false,
			"normalized": true,
			"special": false
		},
		{
			"id": 15,
			"content": "<0x0A>",
			"single_word": false,
			"lstrip": false,
			"rstrip": false,
			"normalized": true,
			"special": false
		},
		{
			"id": 16,
			"content": "<0x0B>",
			"single_word": false,
			"lstrip": false,
			"rstrip": false,
			"normalized": true,
			"special": false
		},
		{
			"id": 17,
			"content": "<0x0C>",
			"single_word": false,
			"lstrip": false,
			"rstrip": false,
			"normalized": true,
			"special": false
		},
		{
			"id": 18,
			"content": "<0x0D>",
			"single_word": false,
			"lstrip": false,
			"rstrip": false,
			"normalized": true,
			"special": false
		},
		{
			"id": 19,
			"content": "<0x0E>",
			"single_word": false,
			"lstrip": false,
			"rstrip": false,
			"normalized": true,
			"special": false
		},
		{
			"id": 20,
			"content": "<0x0F>",
			"single_word": false,
			"lstrip": false,
			"rstrip": false,
			"normalized": true,
			"special": false
		},
		{
			"id": 21,
			"content": "<0x10>",
			"single_word": false,
			"lstrip": false,
			"rstrip": false,
			"normalized": true,
			"special": false
		},
		{
			"id": 22,
			"content": "<0x11>",
			"single_word": false,
			"lstrip": false,
			"rstrip": false,
			"normalized": true,
			"special": false
		},
		{
			"id": 23,
			"content": "<0x12>",
			"single_word": false,
			"lstrip": false,
			"rstrip": false,
			"normalized": true,
			"special": false
		},
		{
			"id": 24,
			"content": "<0x13>",
			"single_word": false,
			"lstrip": false,
			"rstrip": false,
			"normalized": true,
			"special": false
		},
		{
			"id": 25,
			"content": "<0x14>",
			"single_word": false,
			"lstrip": false,
			"rstrip": false,
			"normalized": true,
			"special": false
		},
		{
			"id": 26,
			"content": "<0x15>",
			"single_word": false,
			"lstrip": false,
			"rstrip": false,
			"normalized": true,
			"special": false
		},
		{
			"id": 27,
			"content": "<0x16>",
			"single_word": false,
			"lstrip": false,
			"rstrip": false,
			"normalized": true,
			"special": false
		},
		{
			"id": 28,
			"content": "<0x17>",
			"single_word": false,
			"lstrip": false,
			"rstrip": false,
			"normalized": true,
			"special": false
		},
		{
			"id": 29,
			"content": "<0x18>",
			"single_word": false,
			"lstrip": false,
			"rstrip": false,
			"normalized": true,
			"special": false
		},
		{
			"id": 30,
			"content": "<0x19>",
			"single_word": false,
			"lstrip": false,
			"rstrip": false,
			"normalized": true,
			"special": false
		},
		{
			"id": 31,
			"content": "<0x1A>",
			"single_word": false,
			"lstrip": false,
			"rstrip": false,
			"normalized": true,
			"special": false
		},
		{
			"id": 32,
			"content": "<0x1B>",
			"single_word": false,
			"lstrip": false,
			"rstrip": false,
			"normalized": true,
			"special": false
		},
		{
			"id": 33,
			"content": "<0x1C>",
			"single_word": false,
			"lstrip": false,
			"rstrip": false,
			"normalized": true,
			"special": false
		},
		{
			"id": 34,
			"content": "<0x1D>",
			"single_word": false,
			"lstrip": false,
			"rstrip": false,
			"normalized": true,
			"special": false
		},
		{
			"id": 35,
			"content": "<0x1E>",
			"single_word": false,
			"lstrip": false,
			"rstrip": false,
			"normalized": true,
			"special": false
		},
		{
			"id": 36,
			"content": "<0x1F>",
			"single_word": false,
			"lstrip": false,
			"rstrip": false,
			"normalized": true,
			"special": false
		},
		{
			"id": 37,
			"content": "<0x20>",
			"single_word": false,
			"lstrip": false,
			"rstrip": false,
			"normalized": true,
			"special": false
		},
		{
			"id": 38,
			"content": "<0x21>",
			"single_word": false,
			"lstrip": false,
			"rstrip": false,
			"normalized": true,
			"special": false
		},
		{
			"id": 39,
			"content": "<0x22>",
			"single_word": false,
			"lstrip": false,
			"rstrip": false,
			"normalized": true,
			"special": false
		},
		{
			"id": 40,
			"content": "<0x23>",
			"single_word": false,
			"lstrip": false,
			"rstrip": false,
			"normalized": true,
			"special": false
		},
		{
			"id": 41,
			"content": "<0x24>",
			"single_word": false,
			"lstrip": false,
			"rstrip": false,
			"normalized": true,
			"special": false
		},
		{
			"id": 42,
			"content": "<0x25>",
			"single_word": false,
			"lstrip": false,
			"rstrip": false,
			"normalized": true,
			"special": false
		},
		{
			"id": 43,
			"content": "<0x26>",
			"single_word": false,
			"lstrip": false,
			"rstrip": false,
			"normalized": true,
			"special": false
		},
		{
			"id": 44,
			"content": "<0x27>",
			"single_word": false,
			"lstrip": false,
			"rstrip": false,
			"normalized": true,
			"special": false
		},
		{
			"id": 45,
			"content": "<0x28>",
			"single_word": false,
			"lstrip": false,
			"rstrip": false,
			"normalized": true,
			"special": false
		},
		{
			"id": 46,
			"content": "<0x29>",
			"single_word": false,
			"lstrip": false,
			"rstrip": false,
			"normalized": true,
			"special": false
		},
		{
			"id": 47,
			"content": "<0x2A>",
			"single_word": false,
			"lstrip": false,
			"rstrip": false,
			"normalized": true,
			"special": false
		},
		{
			"id": 48,
			"content": "<0x2B>",
			"single_word": false,
			"lstrip": false,
			"rstrip": false,
			"normalized": true,
			"special": false
		},
		{
			"id": 49,
			"content": "<0x2C>",
			"single_word": false,
			"lstrip": false,
			"rstrip": false,
			"normalized": true,
			"special": false
		},
		{
			"id": 50,
			"content": "<0x2D>",
			"single_word": false,
			"lstrip": false,
			"rstrip": false,
			"normalized": true,
			"special": false
		},
		{
			"id": 51,
			"content": "<0x2E>",
			"single_word": false,
			"lstrip": false,
			"rstrip": false,
			"normalized": true,
			"special": false
		},
		{
			"id": 52,
			"content": "<0x2F>",
			"single_word": false,
			"lstrip": false,
			"rstrip": false,
			"normalized": true,
			"special": false
		},
		{
			"id": 53,
			"content": "<0x30>",
			"single_word": false,
			"lstrip": false,
			"rstrip": false,
			"normalized": true,
			"special": false
		},
		{
			"id": 54,
			"content": "<0x31>",
			"single_word": false,
			"lstrip": false,
			"rstrip": false,
			"normalized": true,
			"special": false
		},
		{
			"id": 55,
			"content": "<0x32>",
			"single_word": false,
			"lstrip": false,
			"rstrip": false,
			"normalized": true,
			"special": false
		},
		{
			"id": 56,
			"content": "<0x33>",
			"single_word": false,
			"lstrip": false,
			"rstrip": false,
			"normalized": true,
			"special": false
		},
		{
			"id": 57,
			"content": "<0x34>",
			"single_word": false,
			"lstrip": false,
			"rstrip": false,
			"normalized": true,
			"special": false
		},
		{
			"id": 58,
			"content": "<0x35>",
			"single_word": false,
			"lstrip": false,
			"rstrip": false,
			"normalized": true,
			"special": false
		},
		{
			"id": 59,
			"content": "<0x36>",
			"single_word": false,
			"lstrip": false,
			"rstrip": false,
			"normalized": true,
			"special": false
		},
		{
			"id": 60,
			"content": "<0x37>",
			"single_word": false,
			"lstrip": false,
			"rstrip": false,
			"normalized": true,
			"special": false
		},
		{
			"id": 61,
			"content": "<0x38>",
			"single_word": false,
			"lstrip": false,
			"rstrip": false,
			"normalized": true,
			"special": false
		},
		{
			"id": 62,
			"content": "<0x39>",
			"single_word": false,
			"lstrip": false,
			"rstrip": false,
			"normalized": true,
			"special": false
		},
		{
			"id": 63,
			"content": "<0x3A>",
			"single_word": false,
			"lstrip": false,
			"rstrip": false,
			"normalized": true,
			"special": false
		},
		{
			"id": 64,
			"content": "<0x3B>",
			"single_word": false,
			"lstrip": false,
			"rstrip": false,
			"normalized": true,
			"special": false
		},
		{
			"id": 65,
			"content": "<0x3C>",
			"single_word": false,
			"lstrip": false,
			"rstrip": false,
			"normalized": true,
			"special": false
		},
		{
			"id": 66,
			"content": "<0x3D>",
			"single_word": false,
			"lstrip": false,
			"rstrip": false,
			"normalized": true,
			"special": false
		},
		{
			"id": 67,
			"content": "<0x3E>",
			"single_word": false,
			"lstrip": false,
			"rstrip": false,
			"normalized": true,
			"special": false
		},
		{
			"id": 68,
			"content": "<0x3F>",
			"single_word": false,
			"lstrip": false,
			"rstrip": false,
			"normalized": true,
			"special": false
		},
		{
			"id": 69,
			"content": "<0x40>",
			"single_word": false,
			"lstrip": false,
			"rstrip": false,
			"normalized": true,
			"special": false
		},
		{
			"id": 70,
			"content": "<0x41>",
			"single_word": false,
			"lstrip": false,
			"rstrip": false,
			"normalized": true,
			"special": false
		},
		{
			"id": 71,
			"content": "<0x42>",
			"single_word": false,
			"lstrip": false,
			"rstrip": false,
			"normalized": true,
			"special": false
		},
		{
			"id": 72,
			"content": "<0x43>",
			"single_word": false,
			"lstrip": false,
			"rstrip": false,
			"normalized": true,
			"special": false
		},
		{
			"id": 73,
			"content": "<0x44>",
			"single_word": false,
			"lstrip": false,
			"rstrip": false,
			"normalized": true,
			"special": false
		},
		{
			"id": 74,
			"content": "<0x45>",
			"single_word": false,
			"lstrip": false,
			"rstrip": false,
			"normalized": true,
			"special": false
		},
		{
			"id": 75,
			"content": "<0x46>",
			"single_word": false,
			"lstrip": false,
			"rstrip": false,
			"normalized": true,
			"special": false
		},
		{
			"id": 76,
			"content": "<0x47>",
			"single_word": false,
			"lstrip": false,
			"rstrip": false,
			"normalized": true,
			"special": false
		},
		{
			"id": 77,
			"content": "<0x48>",
			"single_word": false,
			"lstrip": false,
			"rstrip": false,
			"normalized": true,
			"special": false
		},
		{
			"id": 78,
			"content": "<0x49>",
			"single_word": false,
			"lstrip": false,
			"rstrip": false,
			"normalized": true,
			"special": false
		},
		{
			"id": 79,
			"content": "<0x4A>",
			"single_word": false,
			"lstrip": false,
			"rstrip": false,
			"normalized": true,
			"special": false
		},
		{
			"id": 80,
			"content": "<0x4B>",
			"single_word": false,
			"lstrip": false,
			"rstrip": false,
			"normalized": true,
			"special": false
		},
		{
			"id": 81,
			"content": "<0x4C>",
			"single_word": false,
			"lstrip": false,
			"rstrip": false,
			"normalized": true,
			"special": false
		},
		{
			"id": 82,
			"content": "<0x4D>",
			"single_word": false,
			"lstrip": false,
			"rstrip": false,
			"normalized": true,
			"special": false
		},
		{
			"id": 83,
			"content": "<0x4E>",
			"single_word": false,
			"lstrip": false,
			"rstrip": false,
			"normalized": true,
			"special": false
		},
		{
			"id": 84,
			"content": "<0x4F>",
			"single_word": false,
			"lstrip": false,
			"rstrip": false,
			"normalized": true,
			"special": false
		},
		{
			"id": 85,
			"content": "<0x50>",
			"single_word": false,
			"lstrip": false,
			"rstrip": false,
			"normalized": true,
			"special": false
		},
		{
			"id": 86,
			"content": "<0x51>",
			"single_word": false,
			"lstrip": false,
			"rstrip": false,
			"normalized": true,
			"special": false
		},
		{
			"id": 87,
			"content": "<0x52>",
			"single_word": false,
			"lstrip": false,
			"rstrip": false,
			"normalized": true,
			"special": false
		},
		{
			"id": 88,
			"content": "<0x53>",
			"single_word": false,
			"lstrip": false,
			"rstrip": false,
			"normalized": true,
			"special": false
		},
		{
			"id": 89,
			"content": "<0x54>",
			"single_word": false,
			"lstrip": false,
			"rstrip": false,
			"normalized": true,
			"special": false
		},
		{
			"id": 90,
			"content": "<0x55>",
			"single_word": false,
			"lstrip": false,
			"rstrip": false,
			"normalized": true,
			"special": false
		},
		{
			"id": 91,
			"content": "<0x56>",
			"single_word": false,
			"lstrip": false,
			"rstrip": false,
			"normalized": true,
			"special": false
		},
		{
			"id": 92,
			"content": "<0x57>",
			"single_word": false,
			"lstrip": false,
			"rstrip": false,
			"normalized": true,
			"special": false
		},
		{
			"id": 93,
			"content": "<0x58>",
			"single_word": false,
			"lstrip": false,
			"rstrip": false,
			"normalized": true,
			"special": false
		},
		{
			"id": 94,
			"content": "<0x59>",
			"single_word": false,
			"lstrip": false,
			"rstrip": false,
			"normalized": true,
			"special": false
		},
		{
			"id": 95,
			"content": "<0x5A>",
			"single_word": false,
			"lstrip": false,
			"rstrip": false,
			"normalized": true,
			"special": false
		},
		{
			"id": 96,
			"content": "<0x5B>",
			"single_word": false,
			"lstrip": false,
			"rstrip": false,
			"normalized": true,
			"special": false
		},
		{
			"id": 97,
			"content": "<0x5C>",
			"single_word": false,
			"lstrip": false,
			"rstrip": false,
			"normalized": true,
			"special": false
		},
		{
			"id": 98,
			"content": "<0x5D>",
			"single_word": false,
			"lstrip": false,
			"rstrip": false,
			"normalized": true,
			"special": false
		},
		{
			"id": 99,
			"content": "<0x5E>",
			"single_word": false,
			"lstrip": false,
			"rstrip": false,
			"normalized": true,
			"special": false
		},
		{
			"id": 100,
			"content": "<0x5F>",
			"single_word": false,
			"lstrip": false,
			"rstrip": false,
			"normalized": true,
			"special": false
		},
		{
			"id": 101,
			"content": "<0x60>",
			"single_word": false,
			"lstrip": false,
			"rstrip": false,
			"normalized": true,
			"special": false
		},
		{
			"id": 102,
			"content": "<0x61>",
			"single_word": false,
			"lstrip": false,
			"rstrip": false,
			"normalized": true,
			"special": false
		},
		{
			"id": 103,
			"content": "<0x62>",
			"single_word": false,
			"lstrip": false,
			"rstrip": false,
			"normalized": true,
			"special": false
		},
		{
			"id": 104,
			"content": "<0x63>",
			"single_word": false,
			"lstrip": false,
			"rstrip": false,
			"normalized": true,
			"special": false
		},
		{
			"id": 105,
			"content": "<0x64>",
			"single_word": false,
			"lstrip": false,
			"rstrip": false,
			"normalized": true,
			"special": false
		},
		{
			"id": 106,
			"content": "<0x65>",
			"single_word": false,
			"lstrip": false,
			"rstrip": false,
			"normalized": true,
			"special": false
		},
		{
			"id": 107,
			"content": "<0x66>",
			"single_word": false,
			"lstrip": false,
			"rstrip": false,
			"normalized": true,
			"special": false
		},
		{
			"id": 108,
			"content": "<0x67>",
			"single_word": false,
			"lstrip": false,
			"rstrip": false,
			"normalized": true,
			"special": false
		},
		{
			"id": 109,
			"content": "<0x68>",
			"single_word": false,
			"lstrip": false,
			"rstrip": false,
			"normalized": true,
			"special": false
		},
		{
			"id": 110,
			"content": "<0x69>",
			"single_word": false,
			"lstrip": false,
			"rstrip": false,
			"normalized": true,
			"special": false
		},
		{
			"id": 111,
			"content": "<0x6A>",
			"single_word": false,
			"lstrip": false,
			"rstrip": false,
			"normalized": true,
			"special": false
		},
		{
			"id": 112,
			"content": "<0x6B>",
			"single_word": false,
			"lstrip": false,
			"rstrip": false,
			"normalized": true,
			"special": false
		},
		{
			"id": 113,
			"content": "<0x6C>",
			"single_word": false,
			"lstrip": false,
			"rstrip": false,
			"normalized": true,
			"special": false
		},
		{
			"id": 114,
			"content": "<0x6D>",
			"single_word": false,
			"lstrip": false,
			"rstrip": false,
			"normalized": true,
			"special": false
		},
		{
			"id": 115,
			"content": "<0x6E>",
			"single_word": false,
			"lstrip": false,
			"rstrip": false,
			"normalized": true,
			"special": false
		},
		{
			"id": 116,
			"content": "<0x6F>",
			"single_word": false,
			"lstrip": false,
			"rstrip": false,
			"normalized": true,
			"special": false
		},
		{
			"id": 117,
			"content": "<0x70>",
			"single_word": false,
			"lstrip": false,
			"rstrip": false,
			"normalized": true,
			"special": false
		},
		{
			"id": 118,
			"content": "<0x71>",
			"single_word": false,
			"lstrip": false,
			"rstrip": false,
			"normalized": true,
			"special": false
		},
		{
			"id": 119,
			"content": "<0x72>",
			"single_word": false,
			"lstrip": false,
			"rstrip": false,
			"normalized": true,
			"special": false
		},
		{
			"id": 120,
			"content": "<0x73>",
			"single_word": false,
			"lstrip": false,
			"rstrip": false,
			"normalized": true,
			"special": false
		},
		{
			"id": 121,
			"content": "<0x74>",
			"single_word": false,
			"lstrip": false,
			"rstrip": false,
			"normalized": true,
			"special": false
		},
		{
			"id": 122,
			"content": "<0x75>",
			"single_word": false,
			"lstrip": false,
			"rstrip": false,
			"normalized": true,
			"special": false
		},
		{
			"id": 123,
			"content": "<0x76>",
			"single_word": false,
			"lstrip": false,
			"rstrip": false,
			"normalized": true,
			"special": false
		},
		{
			"id": 124,
			"content": "<0x77>",
			"single_word": false,
			"lstrip": false,
			"rstrip": false,
			"normalized": true,
			"special": false
		},
		{
			"id": 125,
			"content": "<0x78>",
			"single_word": false,
			"lstrip": false,
			"rstrip": false,
			"normalized": true,
			"special": false
		},
		{
			"id": 126,
			"content": "<0x79>",
			"single_word": false,
			"lstrip": false,
			"rstrip": false,
			"normalized": true,
			"special": false
		},
		{
			"id": 127,
			"content": "<0x7A>",
			"single_word": false,
			"lstrip": false,
			"rstrip": false,
			"normalized": true,
			"special": false
		},
		{
			"id": 128,
			"content": "<0x7B>",
			"single_word": false,
			"lstrip": false,
			"rstrip": false,
			"normalized": true,
			"special": false
		},
		{
			"id": 129,
			"content": "<0x7C>",
			"single_word": false,
			"lstrip": false,
			"rstrip": false,
			"normalized": true,
			"special": false
		},
		{
			"id": 130,
			"content": "<0x7D>",
			"single_word": false,
			"lstrip": false,
			"rstrip": false,
			"normalized": true,
			"special": false
		},
		{
			"id": 131,
			"content": "<0x7E>",
			"single_word": false,
			"lstrip": false,
			"rstrip": false,
			"normalized": true,
			"special": false
		},
		{
			"id": 132,
			"content": "<0x7F>",
			"single_word": false,
			"lstrip": false,
			"rstrip": false,
			"normalized": true,
			"special": false
		},
		{
			"id": 133,
			"content": "<0x80>",
			"single_word": false,
			"lstrip": false,
			"rstrip": false,
			"normalized": true,
			"special": false
		},
		{
			"id": 134,
			"content": "<0x81>",
			"single_word": false,
			"lstrip": false,
			"rstrip": false,
			"normalized": true,
			"special": false
		},
		{
			"id": 135,
			"content": "<0x82>",
			"single_word": false,
			"lstrip": false,
			"rstrip": false,
			"normalized": true,
			"special": false
		},
		{
			"id": 136,
			"content": "<0x83>",
			"single_word": false,
			"lstrip": false,
			"rstrip": false,
			"normalized": true,
			"special": false
		},
		{
			"id": 137,
			"content": "<0x84>",
			"single_word": false,
			"lstrip": false,
			"rstrip": false,
			"normalized": true,
			"special": false
		},
		{
			"id": 138,
			"content": "<0x85>",
			"single_word": false,
			"lstrip": false,
			"rstrip": false,
			"normalized": true,
			"special": false
		},
		{
			"id": 139,
			"content": "<0x86>",
			"single_word": false,
			"lstrip": false,
			"rstrip": false,
			"normalized": true,
			"special": false
		},
		{
			"id": 140,
			"content": "<0x87>",
			"single_word": false,
			"lstrip": false,
			"rstrip": false,
			"normalized": true,
			"special": false
		},
		{
			"id": 141,
			"content": "<0x88>",
			"single_word": false,
			"lstrip": false,
			"rstrip": false,
			"normalized": true,
			"special": false
		},
		{
			"id": 142,
			"content": "<0x89>",
			"single_word": false,
			"lstrip": false,
			"rstrip": false,
			"normalized": true,
			"special": false
		},
		{
			"id": 143,
			"content": "<0x8A>",
			"single_word": false,
			"lstrip": false,
			"rstrip": false,
			"normalized": true,
			"special": false
		},
		{
			"id": 144,
			"content": "<0x8B>",
			"single_word": false,
			"lstrip": false,
			"rstrip": false,
			"normalized": true,
			"special": false
		},
		{
			"id": 145,
			"content": "<0x8C>",
			"single_word": false,
			"lstrip": false,
			"rstrip": false,
			"normalized": true,
			"special": false
		},
		{
			"id": 146,
			"content": "<0x8D>",
			"single_word": false,
			"lstrip": false,
			"rstrip": false,
			"normalized": true,
			"special": false
		},
		{
			"id": 147,
			"content": "<0x8E>",
			"single_word": false,
			"lstrip": false,
			"rstrip": false,
			"normalized": true,
			"special": false
		},
		{
			"id": 148,
			"content": "<0x8F>",
			"single_word": false,
			"lstrip": false,
			"rstrip": false,
			"normalized": true,
			"special": false
		},
		{
			"id": 149,
			"content": "<0x90>",
			"single_word": false,
			"lstrip": false,
			"rstrip": false,
			"normalized": true,
			"special": false
		},
		{
			"id": 150,
			"content": "<0x91>",
			"single_word": false,
			"lstrip": false,
			"rstrip": false,
			"normalized": true,
			"special": false
		},
		{
			"id": 151,
			"content": "<0x92>",
			"single_word": false,
			"lstrip": false,
			"rstrip": false,
			"normalized": true,
			"special": false
		},
		{
			"id": 152,
			"content": "<0x93>",
			"single_word": false,
			"lstrip": false,
			"rstrip": false,
			"normalized": true,
			"special": false
		},
		{
			"id": 153,
			"content": "<0x94>",
			"single_word": false,
			"lstrip": false,
			"rstrip": false,
			"normalized": true,
			"special": false
		},
		{
			"id": 154,
			"content": "<0x95>",
			"single_word": false,
			"lstrip": false,
			"rstrip": false,
			"normalized": true,
			"special": false
		},
		{
			"id": 155,
			"content": "<0x96>",
			"single_word": false,
			"lstrip": false,
			"rstrip": false,
			"normalized": true,
			"special": false
		},
		{
			"id": 156,
			"content": "<0x97>",
			"single_word": false,
			"lstrip": false,
			"rstrip": false,
			"normalized": true,
			"special": false
		},
		{
			"id": 157,
			"content": "<0x98>",
			"single_word": false,
			"lstrip": false,
			"rstrip": false,
			"normalized": true,
			"special": false
		},
		{
			"id": 158,
			"content": "<0x99>",
			"single_word": false,
			"lstrip": false,
			"rstrip": false,
			"normalized": true,
			"special": false
		},
		{
			"id": 159,
			"content": "<0x9A>",
			"single_word": false,
			"lstrip": false,
			"rstrip": false,
			"normalized": true,
			"special": false
		},
		{
			"id": 160,
			"content": "<0x9B>",
			"single_word": false,
			"lstrip": false,
			"rstrip": false,
			"normalized": true,
			"special": false
		},
		{
			"id": 161,
			"content": "<0x9C>",
			"single_word": false,
			"lstrip": false,
			"rstrip": false,
			"normalized": true,
			"special": false
		},
		{
			"id": 162,
			"content": "<0x9D>",
			"single_word": false,
			"lstrip": false,
			"rstrip": false,
			"normalized": true,
			"special": false
		},
		{
			"id": 163,
			"content": "<0x9E>",
			"single_word": false,
			"lstrip": false,
			"rstrip": false,
			"normalized": true,
			"special": false
		},
		{
			"id": 164,
			"content": "<0x9F>",
			"single_word": false,
			"lstrip": false,
			"rstrip": false,
			"normalized": true,
			"special": false
		},
		{
			"id": 165,
			"content": "<0xA0>",
			"single_word": false,
			"lstrip": false,
			"rstrip": false,
			"normalized": true,
			"special": false
		},
		{
			"id": 166,
			"content": "<0xA1>",
			"single_word": false,
			"lstrip": false,
			"rstrip": false,
			"normalized": true,
			"special": false
		},
		{
			"id": 167,
			"content": "<0xA2>",
			"single_word": false,
			"lstrip": false,
			"rstrip": false,
			"normalized": true,
			"special": false
		},
		{
			"id": 168,
			"content": "<0xA3>",
			"single_word": false,
			"lstrip": false,
			"rstrip": false,
			"normalized": true,
			"special": false
		},
		{
			"id": 169,
			"content": "<0xA4>",
			"single_word": false,
			"lstrip": false,
			"rstrip": false,
			"normalized": true,
			"special": false
		},
		{
			"id": 170,
			"content": "<0xA5>",
			"single_word": false,
			"lstrip": false,
			"rstrip": false,
			"normalized": true,
			"special": false
		},
		{
			"id": 171,
			"content": "<0xA6>",
			"single_word": false,
			"lstrip": false,
			"rstrip": false,
			"normalized": true,
			"special": false
		},
		{
			"id": 172,
			"content": "<0xA7>",
			"single_word": false,
			"lstrip": false,
			"rstrip": false,
			"normalized": true,
			"special": false
		},
		{
			"id": 173,
			"content": "<0xA8>",
			"single_word": false,
			"lstrip": false,
			"rstrip": false,
			"normalized": true,
			"special": false
		},
		{
			"id": 174,
			"content": "<0xA9>",
			"single_word": false,
			"lstrip": false,
			"rstrip": false,
			"normalized": true,
			"special": false
		},
		{
			"id": 175,
			"content": "<0xAA>",
			"single_word": false,
			"lstrip": false,
			"rstrip": false,
			"normalized": true,
			"special": false
		},
		{
			"id": 176,
			"content": "<0xAB>",
			"single_word": false,
			"lstrip": false,
			"rstrip": false,
			"normalized": true,
			"special": false
		},
		{
			"id": 177,
			"content": "<0xAC>",
			"single_word": false,
			"lstrip": false,
			"rstrip": false,
			"normalized": true,
			"special": false
		},
		{
			"id": 178,
			"content": "<0xAD>",
			"single_word": false,
			"lstrip": false,
			"rstrip": false,
			"normalized": true,
			"special": false
		},
		{
			"id": 179,
			"content": "<0xAE>",
			"single_word": false,
			"lstrip": false,
			"rstrip": false,
			"normalized": true,
			"special": false
		},
		{
			"id": 180,
			"content": "<0xAF>",
			"single_word": false,
			"lstrip": false,
			"rstrip": false,
			"normalized": true,
			"special": false
		},
		{
			"id": 181,
			"content": "<0xB0>",
			"single_word": false,
			"lstrip": false,
			"rstrip": false,
			"normalized": true,
			"special": false
		},
		{
			"id": 182,
			"content": "<0xB1>",
			"single_word": false,
			"lstrip": false,
			"rstrip": false,
			"normalized": true,
			"special": false
		},
		{
			"id": 183,
			"content": "<0xB2>",
			"single_word": false,
			"lstrip": false,
			"rstrip": false,
			"normalized": true,
			"special": false
		},
		{
			"id": 184,
			"content": "<0xB3>",
			"single_word": false,
			"lstrip": false,
			"rstrip": false,
			"normalized": true,
			"special": false
		},
		{
			"id": 185,
			"content": "<0xB4>",
			"single_word": false,
			"lstrip": false,
			"rstrip": false,
			"normalized": true,
			"special": false
		},
		{
			"id": 186,
			"content": "<0xB5>",
			"single_word": false,
			"lstrip": false,
			"rstrip": false,
			"normalized": true,
			"special": false
		},
		{
			"id": 187,
			"content": "<0xB6>",
			"single_word": false,
			"lstrip": false,
			"rstrip": false,
			"normalized": true,
			"special": false
		},
		{
			"id": 188,
			"content": "<0xB7>",
			"single_word": false,
			"lstrip": false,
			"rstrip": false,
			"normalized": true,
			"special": false
		},
		{
			"id": 189,
			"content": "<0xB8>",
			"single_word": false,
			"lstrip": false,
			"rstrip": false,
			"normalized": true,
			"special": false
		},
		{
			"id": 190,
			"content": "<0xB9>",
			"single_word": false,
			"lstrip": false,
			"rstrip": false,
			"normalized": true,
			"special": false
		},
		{
			"id": 191,
			"content": "<0xBA>",
			"single_word": false,
			"lstrip": false,
			"rstrip": false,
			"normalized": true,
			"special": false
		},
		{
			"id": 192,
			"content": "<0xBB>",
			"single_word": false,
			"lstrip": false,
			"rstrip": false,
			"normalized": true,
			"special": false
		},
		{
			"id": 193,
			"content": "<0xBC>",
			"single_word": false,
			"lstrip": false,
			"rstrip": false,
			"normalized": true,
			"special": false
		},
		{
			"id": 194,
			"content": "<0xBD>",
			"single_word": false,
			"lstrip": false,
			"rstrip": false,
			"normalized": true,
			"special": false
		},
		{
			"id": 195,
			"content": "<0xBE>",
			"single_word": false,
			"lstrip": false,
			"rstrip": false,
			"normalized": true,
			"special": false
		},
		{
			"id": 196,
			"content": "<0xBF>",
			"single_word": false,
			"lstrip": false,
			"rstrip": false,
			"normalized": true,
			"special": false
		},
		{
			"id": 197,
			"content": "<0xC0>",
			"single_word": false,
			"lstrip": false,
			"rstrip": false,
			"normalized": true,
			"special": false
		},
		{
			"id": 198,
			"content": "<0xC1>",
			"single_word": false,
			"lstrip": false,
			"rstrip": false,
			"normalized": true,
			"special": false
		},
		{
			"id": 199,
			"content": "<0xC2>",
			"single_word": false,
			"lstrip": false,
			"rstrip": false,
			"normalized": true,
			"special": false
		},
		{
			"id": 200,
			"content": "<0xC3>",
			"single_word": false,
			"lstrip": false,
			"rstrip": false,
			"normalized": true,
			"special": false
		},
		{
			"id": 201,
			"content": "<0xC4>",
			"single_word": false,
			"lstrip": false,
			"rstrip": false,
			"normalized": true,
			"special": false
		},
		{
			"id": 202,
			"content": "<0xC5>",
			"single_word": false,
			"lstrip": false,
			"rstrip": false,
			"normalized": true,
			"special": false
		},
		{
			"id": 203,
			"content": "<0xC6>",
			"single_word": false,
			"lstrip": false,
			"rstrip": false,
			"normalized": true,
			"special": false
		},
		{
			"id": 204,
			"content": "<0xC7>",
			"single_word": false,
			"lstrip": false,
			"rstrip": false,
			"normalized": true,
			"special": false
		},
		{
			"id": 205,
			"content": "<0xC8>",
			"single_word": false,
			"lstrip": false,
			"rstrip": false,
			"normalized": true,
			"special": false
		},
		{
			"id": 206,
			"content": "<0xC9>",
			"single_word": false,
			"lstrip": false,
			"rstrip": false,
			"normalized": true,
			"special": false
		},
		{
			"id": 207,
			"content": "<0xCA>",
			"single_word": false,
			"lstrip": false,
			"rstrip": false,
			"normalized": true,
			"special": false
		},
		{
			"id": 208,
			"content": "<0xCB>",
			"single_word": false,
			"lstrip": false,
			"rstrip": false,
			"normalized": true,
			"special": false
		},
		{
			"id": 209,
			"content": "<0xCC>",
			"single_word": false,
			"lstrip": false,
			"rstrip": false,
			"normalized": true,
			"special": false
		},
		{
			"id": 210,
			"content": "<0xCD>",
			"single_word": false,
			"lstrip": false,
			"rstrip": false,
			"normalized": true,
			"special": false
		},
		{
			"id": 211,
			"content": "<0xCE>",
			"single_word": false,
			"lstrip": false,
			"rstrip": false,
			"normalized": true,
			"special": false
		},
		{
			"id": 212,
			"content": "<0xCF>",
			"single_word": false,
			"lstrip": false,
			"rstrip": false,
			"normalized": true,
			"special": false
		},
		{
			"id": 213,
			"content": "<0xD0>",
			"single_word": false,
			"lstrip": false,
			"rstrip": false,
			"normalized": true,
			"special": false
		},
		{
			"id": 214,
			"content": "<0xD1>",
			"single_word": false,
			"lstrip": false,
			"rstrip": false,
			"normalized": true,
			"special": false
		},
		{
			"id": 215,
			"content": "<0xD2>",
			"single_word": false,
			"lstrip": false,
			"rstrip": false,
			"normalized": true,
			"special": false
		},
		{
			"id": 216,
			"content": "<0xD3>",
			"single_word": false,
			"lstrip": false,
			"rstrip": false,
			"normalized": true,
			"special": false
		},
		{
			"id": 217,
			"content": "<0xD4>",
			"single_word": false,
			"lstrip": false,
			"rstrip": false,
			"normalized": true,
			"special": false
		},
		{
			"id": 218,
			"content": "<0xD5>",
			"single_word": false,
			"lstrip": false,
			"rstrip": false,
			"normalized": true,
			"special": false
		},
		{
			"id": 219,
			"content": "<0xD6>",
			"single_word": false,
			"lstrip": false,
			"rstrip": false,
			"normalized": true,
			"special": false
		},
		{
			"id": 220,
			"content": "<0xD7>",
			"single_word": false,
			"lstrip": false,
			"rstrip": false,
			"normalized": true,
			"special": false
		},
		{
			"id": 221,
			"content": "<0xD8>",
			"single_word": false,
			"lstrip": false,
			"rstrip": false,
			"normalized": true,
			"special": false
		},
		{
			"id": 222,
			"content": "<0xD9>",
			"single_word": false,
			"lstrip": false,
			"rstrip": false,
			"normalized": true,
			"special": false
		},
		{
			"id": 223,
			"content": "<0xDA>",
			"single_word": false,
			"lstrip": false,
			"rstrip": false,
			"normalized": true,
			"special": false
		},
		{
			"id": 224,
			"content": "<0xDB>",
			"single_word": false,
			"lstrip": false,
			"rstrip": false,
			"normalized": true,
			"special": false
		},
		{
			"id": 225,
			"content": "<0xDC>",
			"single_word": false,
			"lstrip": false,
			"rstrip": false,
			"normalized": true,
			"special": false
		},
		{
			"id": 226,
			"content": "<0xDD>",
			"single_word": false,
			"lstrip": false,
			"rstrip": false,
			"normalized": true,
			"special": false
		},
		{
			"id": 227,
			"content": "<0xDE>",
			"single_word": false,
			"lstrip": false,
			"rstrip": false,
			"normalized": true,
			"special": false
		},
		{
			"id": 228,
			"content": "<0xDF>",
			"single_word": false,
			"lstrip": false,
			"rstrip": false,
			"normalized": true,
			"special": false
		},
		{
			"id": 229,
			"content": "<0xE0>",
			"single_word": false,
			"lstrip": false,
			"rstrip": false,
			"normalized": true,
			"special": false
		},
		{
			"id": 230,
			"content": "<0xE1>",
			"single_word": false,
			"lstrip": false,
			"rstrip": false,
			"normalized": true,
			"special": false
		},
		{
			"id": 231,
			"content": "<0xE2>",
			"single_word": false,
			"lstrip": false,
			"rstrip": false,
			"normalized": true,
			"special": false
		},
		{
			"id": 232,
			"content": "<0xE3>",
			"single_word": false,
			"lstrip": false,
			"rstrip": false,
			"normalized": true,
			"special": false
		},
		{
			"id": 233,
			"content": "<0xE4>",
			"single_word": false,
			"lstrip": false,
			"rstrip": false,
			"normalized": true,
			"special": false
		},
		{
			"id": 234,
			"content": "<0xE5>",
			"single_word": false,
			"lstrip": false,
			"rstrip": false,
			"normalized": true,
			"special": false
		},
		{
			"id": 235,
			"content": "<0xE6>",
			"single_word": false,
			"lstrip": false,
			"rstrip": false,
			"normalized": true,
			"special": false
		},
		{
			"id": 236,
			"content": "<0xE7>",
			"single_word": false,
			"lstrip": false,
			"rstrip": false,
			"normalized": true,
			"special": false
		},
		{
			"id": 237,
			"content": "<0xE8>",
			"single_word": false,
			"lstrip": false,
			"rstrip": false,
			"normalized": true,
			"special": false
		},
		{
			"id": 238,
			"content": "<0xE9>",
			"single_word": false,
			"lstrip": false,
			"rstrip": false,
			"normalized": true,
			"special": false
		},
		{
			"id": 239,
			"content": "<0xEA>",
			"single_word": false,
			"lstrip": false,
			"rstrip": false,
			"normalized": true,
			"special": false
		},
		{
			"id": 240,
			"content": "<0xEB>",
			"single_word": false,
			"lstrip": false,
			"rstrip": false,
			"normalized": true,
			"special": false
		},
		{
			"id": 241,
			"content": "<0xEC>",
			"single_word": false,
			"lstrip": false,
			"rstrip": false,
			"normalized": true,
			"special": false
		},
		{
			"id": 242,
			"content": "<0xED>",
			"single_word": false,
			"lstrip": false,
			"rstrip": false,
			"normalized": true,
			"special": false
		},
		{
			"id": 243,
			"content": "<0xEE>",
			"single_word": false,
			"lstrip": false,
			"rstrip": false,
			"normalized": true,
			"special": false
		},
		{
			"id": 244,
			"content": "<0xEF>",
			"single_word": false,
			"lstrip": false,
			"rstrip": false,
			"normalized": true,
			"special": false
		},
		{
			"id": 245,
			"content": "<0xF0>",
			"single_word": false,
			"lstrip": false,
			"rstrip": false,
			"normalized": true,
			"special": false
		},
		{
			"id": 246,
			"content": "<0xF1>",
			"single_word": false,
			"lstrip": false,
			"rstrip": false,
			"normalized": true,
			"special": false
		},
		{
			"id": 247,
			"content": "<0xF2>",
			"single_word": false,
			"lstrip": false,
			"rstrip": false,
			"normalized": true,
			"special": false
		},
		{
			"id": 248,
			"content": "<0xF3>",
			"single_word": false,
			"lstrip": false,
			"rstrip": false,
			"normalized": true,
			"special": false
		},
		{
			"id": 249,
			"content": "<0xF4>",
			"single_word": false,
			"lstrip": false,
			"rstrip": false,
			"normalized": true,
			"special": false
		},
		{
			"id": 250,
			"content": "<0xF5>",
			"single_word": false,
			"lstrip": false,
			"rstrip": false,
			"normalized": true,
			"special": false
		},
		{
			"id": 251,
			"content": "<0xF6>",
			"single_word": false,
			"lstrip": false,
			"rstrip": false,
			"normalized": true,
			"special": false
		},
		{
			"id": 252,
			"content": "<0xF7>",
			"single_word": false,
			"lstrip": false,
			"rstrip": false,
			"normalized": true,
			"special": false
		},
		{
			"id": 253,
			"content": "<0xF8>",
			"single_word": false,
			"lstrip": false,
			"rstrip": false,
			"normalized": true,
			"special": false
		},
		{
			"id": 254,
			"content": "<0xF9>",
			"single_word": false,
			"lstrip": false,
			"rstrip": false,
			"normalized": true,
			"special": false
		},
		{
			"id": 255,
			"content": "<0xFA>",
			"single_word": false,
			"lstrip": false,
			"rstrip": false,
			"normalized": true,
			"special": false
		},
		{
			"id": 256,
			"content": "<0xFB>",
			"single_word": false,
			"lstrip": false,
			"rstrip": false,
			"normalized": true,
			"special": false
		},
		{
			"id": 257,
			"content": "<0xFC>",
			"single_word": false,
			"lstrip": false,
			"rstrip": false,
			"normalized": true,
			"special": false
		},
		{
			"id": 258,
			"content": "<0xFD>",
			"single_word": false,
			"lstrip": false,
			"rstrip": false,
			"normalized": true,
			"special": false
		},
		{
			"id": 259,
			"content": "<0xFE>",
			"single_word": false,
			"lstrip": false,
			"rstrip": false,
			"normalized": true,
			"special": false
		},
		{
			"id": 260,
			"content": "<0xFF>",
			"single_word": false,
			"lstrip": false,
			"rstrip": false,
			"normalized": true,
			"special": false
		}
	],
	"normalizer": {
		"type": "Sequence",
		"normalizers": [
			{
				"type": "Strip",
				"strip_left": true,
				"strip_right": true
			},
			{
				"type": "NFC"
			}
		]
	},
	"pre_tokenizer": {
		"type": "Sequence",
		"pretokenizers": [
			{
				"type": "Split",
				"pattern": {
					"Regex": "[^\\x{4E00}-\\x{9FFF}\\x{3400}-\\x{4DBF}\\x{F900}-\\x{FAFF}\\x{20000}-\\x{2A6DF}]"
				},
				"behavior": "Isolated",
				"invert": false
			}
		]
	},
	"post_processor": null,
	"decoder": {
		"type": "Sequence",
		"decoders": [
			{
				"type": "ByteFallback"
			},
			{
				"type": "Fuse"
			}
		]
	},
	"model": {
		"type": "BPE",
		"dropout": null,
		"unk_token": "<unk>",
		"continuing_subword_prefix": null,
		"end_of_word_suffix": null,
		"fuse_unk": false,
		"byte_fallback": true,
		"ignore_merges": false,
		"vocab": {
			"<bos>": 0,
			"<eos>": 1,
			"<pad>": 2,
			"<unk>": 3,
			"<mask>": 4,
			"<0x00>": 5,
			"<0x01>": 6,
			"<0x02>": 7,
			"<0x03>": 8,
			"<0x04>": 9,
			"<0x05>": 10,
			"<0x06>": 11,
			"<0x07>": 12,
			"<0x08>": 13,
			"<0x09>": 14,
			"<0x0A>": 15,
			"<0x0B>": 16,
			"<0x0C>": 17,
			"<0x0D>": 18,
			"<0x0E>": 19,
			"<0x0F>": 20,
			"<0x10>": 21,
			"<0x11>": 22,
			"<0x12>": 23,
			"<0x13>": 24,
			"<0x14>": 25,
			"<0x15>": 26,
			"<0x16>": 27,
			"<0x17>": 28,
			"<0x18>": 29,
			"<0x19>": 30,
			"<0x1A>": 31,
			"<0x1B>": 32,
			"<0x1C>": 33,
			"<0x1D>": 34,
			"<0x1E>": 35,
			"<0x1F>": 36,
			"<0x20>": 37,
			"<0x21>": 38,
			"<0x22>": 39,
			"<0x23>": 40,
			"<0x24>": 41,
			"<0x25>": 42,
			"<0x26>": 43,
			"<0x27>": 44,
			"<0x28>": 45,
			"<0x29>": 46,
			"<0x2A>": 47,
			"<0x2B>": 48,
			"<0x2C>": 49,
			"<0x2D>": 50,
			"<0x2E>": 51,
			"<0x2F>": 52,
			"<0x30>": 53,
			"<0x31>": 54,
			"<0x32>": 55,
			"<0x33>": 56,
			"<0x34>": 57,
			"<0x35>": 58,
			"<0x36>": 59,
			"<0x37>": 60,
			"<0x38>": 61,
			"<0x39>": 62,
			"<0x3A>": 63,
			"<0x3B>": 64,
			"<0x3C>": 65,
			"<0x3D>": 66,
			"<0x3E>": 67,
			"<0x3F>": 68,
			"<0x40>": 69,
			"<0x41>": 70,
			"<0x42>": 71,
			"<0x43>": 72,
			"<0x44>": 73,
			"<0x45>": 74,
			"<0x46>": 75,
			"<0x47>": 76,
			"<0x48>": 77,
			"<0x49>": 78,
			"<0x4A>": 79,
			"<0x4B>": 80,
			"<0x4C>": 81,
			"<0x4D>": 82,
			"<0x4E>": 83,
			"<0x4F>": 84,
			"<0x50>": 85,
			"<0x51>": 86,
			"<0x52>": 87,
			"<0x53>": 88,
			"<0x54>": 89,
			"<0x55>": 90,
			"<0x56>": 91,
			"<0x57>": 92,
			"<0x58>": 93,
			"<0x59>": 94,
			"<0x5A>": 95,
			"<0x5B>": 96,
			"<0x5C>": 97,
			"<0x5D>": 98,
			"<0x5E>": 99,
			"<0x5F>": 100,
			"<0x60>": 101,
			"<0x61>": 102,
			"<0x62>": 103,
			"<0x63>": 104,
			"<0x64>": 105,
			"<0x65>": 106,
			"<0x66>": 107,
			"<0x67>": 108,
			"<0x68>": 109,
			"<0x69>": 110,
			"<0x6A>": 111,
			"<0x6B>": 112,
			"<0x6C>": 113,
			"<0x6D>": 114,
			"<0x6E>": 115,
			"<0x6F>": 116,
			"<0x70>": 117,
			"<0x71>": 118,
			"<0x72>": 119,
			"<0x73>": 120,
			"<0x74>": 121,
			"<0x75>": 122,
			"<0x76>": 123,
			"<0x77>": 124,
			"<0x78>": 125,
			"<0x79>": 126,
			"<0x7A>": 127,
			"<0x7B>": 128,
			"<0x7C>": 129,
			"<0x7D>": 130,
			"<0x7E>": 131,
			"<0x7F>": 132,
			"<0x80>": 133,
			"<0x81>": 134,
			"<0x82>": 135,
			"<0x83>": 136,
			"<0x84>": 137,
			"<0x85>": 138,
			"<0x86>": 139,
			"<0x87>": 140,
			"<0x88>": 141,
			"<0x89>": 142,
			"<0x8A>": 143,
			"<0x8B>": 144,
			"<0x8C>": 145,
			"<0x8D>": 146,
			"<0x8E>": 147,
			"<0x8F>": 148,
			"<0x90>": 149,
			"<0x91>": 150,
			"<0x92>": 151,
			"<0x93>": 152,
			"<0x94>": 153,
			"<0x95>": 154,
			"<0x96>": 155,
			"<0x97>": 156,
			"<0x98>": 157,
			"<0x99>": 158,
			"<0x9A>": 159,
			"<0x9B>": 160,
			"<0x9C>": 161,
			"<0x9D>": 162,
			"<0x9E>": 163,
			"<0x9F>": 164,
			"<0xA0>": 165,
			"<0xA1>": 166,
			"<0xA2>": 167,
			"<0xA3>": 168,
			"<0xA4>": 169,
			"<0xA5>": 170,
			"<0xA6>": 171,
			"<0xA7>": 172,
			"<0xA8>": 173,
			"<0xA9>": 174,
			"<0xAA>": 175,
			"<0xAB>": 176,
			"<0xAC>": 177,
			"<0xAD>": 178,
			"<0xAE>": 179,
			"<0xAF>": 180,
			"<0xB0>": 181,
			"<0xB1>": 182,
			"<0xB2>": 183,
			"<0xB3>": 184,
			"<0xB4>": 185,
			"<0xB5>": 186,
			"<0xB6>": 187,
			"<0xB7>": 188,
			"<0xB8>": 189,
			"<0xB9>": 190,
			"<0xBA>": 191,
			"<0xBB>": 192,
			"<0xBC>": 193,
			"<0xBD>": 194,
			"<0xBE>": 195,
			"<0xBF>": 196,
			"<0xC0>": 197,
			"<0xC1>": 198,
			"<0xC2>": 199,
			"<0xC3>": 200,
			"<0xC4>": 201,
			"<0xC5>": 202,
			"<0xC6>": 203,
			"<0xC7>": 204,
			"<0xC8>": 205,
			"<0xC9>": 206,
			"<0xCA>": 207,
			"<0xCB>": 208,
			"<0xCC>": 209,
			"<0xCD>": 210,
			"<0xCE>": 211,
			"<0xCF>": 212,
			"<0xD0>": 213,
			"<0xD1>": 214,
			"<0xD2>": 215,
			"<0xD3>": 216,
			"<0xD4>": 217,
			"<0xD5>": 218,
			"<0xD6>": 219,
			"<0xD7>": 220,
			"<0xD8>": 221,
			"<0xD9>": 222,
			"<0xDA>": 223,
			"<0xDB>": 224,
			"<0xDC>": 225,
			"<0xDD>": 226,
			"<0xDE>": 227,
			"<0xDF>": 228,
			"<0xE0>": 229,
			"<0xE1>": 230,
			"<0xE2>": 231,
			"<0xE3>": 232,
			"<0xE4>": 233,
			"<0xE5>": 234,
			"<0xE6>": 235,
			"<0xE7>": 236,
			"<0xE8>": 237,
			"<0xE9>": 238,
			"<0xEA>": 239,
			"<0xEB>": 240,
			"<0xEC>": 241,
			"<0xED>": 242,
			"<0xEE>": 243,
			"<0xEF>": 244,
			"<0xF0>": 245,
			"<0xF1>": 246,
			"<0xF2>": 247,
			"<0xF3>": 248,
			"<0xF4>": 249,
			"<0xF5>": 250,
			"<0xF6>": 251,
			"<0xF7>": 252,
			"<0xF8>": 253,
			"<0xF9>": 254,
			"<0xFA>": 255,
			"<0xFB>": 256,
			"<0xFC>": 257,
			"<0xFD>": 258,
			"<0xFE>": 259,
			"<0xFF>": 260,
			" ": 261,
			"!": 262,
			"\"": 263,
			"#": 264,
			"$": 265,
			"%": 266,
			"&": 267,
			"'": 268,
			"(": 269,
			")": 270,
			"*": 271,
			"+": 272,
			",": 273,
			"-": 274,
			".": 275,
			"/": 276,
			"0": 277,
			"1": 278,
			"2": 279,
			"3": 280,
			"4": 281,
			"5": 282,
			"6": 283,
			"7": 284,
			"8": 285,
			"9": 286,
			":": 287,
			";": 288,
			"=": 289,
			"?": 290,
			"@": 291,
			"A": 292,
			"B": 293,
			"C": 294,
			"D": 295,
			"E": 296,
			"F": 297,
			"G": 298,
			"H": 299,
			"I": 300,
			"J": 301,
			"K": 302,
			"L": 303,
			"M": 304,
			"N": 305,
			"O": 306,
			"P": 307,
			"Q": 308,
			"R": 309,
			"S": 310,
			"T": 311,
			"U": 312,
			"V": 313,
			"W": 314,
			"X": 315,
			"Y": 316,
			"Z": 317,
			"[": 318,
			"\\": 319,
			"]": 320,
			"^": 321,
			"_": 322,
			"a": 323,
			"b": 324,
			"c": 325,
			"d": 326,
			"e": 327,
			"f": 328,
			"g": 329,
			"h": 330,
			"i": 331,
			"j": 332,
			"k": 333,
			"l": 334,
			"m": 335,
			"n": 336,
			"o": 337,
			"p": 338,
			"q": 339,
			"r": 340,
			"s": 341,
			"t": 342,
			"u": 343,
			"v": 344,
			"w": 345,
			"x": 346,
			"y": 347,
			"z": 348,
			"{": 349,
			"|": 350,
			"}": 351,
			"~": 352,
			" ": 353,
			"«": 354,
			"°": 355,
			"±": 356,
			"²": 357,
			"³": 358,
			"·": 359,
			"»": 360,
			"Å": 361,
			"É": 362,
			"×": 363,
			"à": 364,
			"á": 365,
			"â": 366,
			"ä": 367,
			"ç": 368,
			"è": 369,
			"é": 370,
			"í": 371,
			"ñ": 372,
			"ó": 373,
			"ö": 374,
			"ú": 375,
			"ü": 376,
			"ā": 377,
			"ŋ": 378,
			"ō": 379,
			"š": 380,
			"ə": 381,
			"ʰ": 382,
			"Δ": 383,
			"α": 384,
			"β": 385,
			"γ": 386,
			"δ": 387,
			"ε": 388,
			"η": 389,
			"θ": 390,
			"ι": 391,
			"κ": 392,
			"λ": 393,
			"μ": 394,
			"ν": 395,
			"ο": 396,
			"π": 397,
			"ρ": 398,
			"ς": 399,
			"σ": 400,
			"τ": 401,
			"φ": 402,
			"ω": 403,
			"С": 404,
			"а": 405,
			"б": 406,
			"в": 407,
			"г": 408,
			"д": 409,
			"е": 410,
			"з": 411,
			"и": 412,
			"й": 413,
			"к": 414,
			"л": 415,
			"м": 416,
			"н": 417,
			"о": 418,
			"п": 419,
			"р": 420,
			"с": 421,
			"т": 422,
			"у": 423,
			"ы": 424,
			"ь": 425,
			"я": 426,
			"ا": 427,
			"ل": 428,
			"་": 429,
			"​": 430,
			"–": 431,
			"—": 432,
			"―": 433,
			"‘": 434,
			"’": 435,
			"“": 436,
			"”": 437,
			"†": 438,
			"•": 439,
			"…": 440,
			"‧": 441,
			"‰": 442,
			"′": 443,
			"″": 444,
			"※": 445,
			"⁄": 446,
			"℃": 447,
			"Ⅰ": 448,
			"Ⅱ": 449,
			"Ⅲ": 450,
			"←": 451,
			"↑": 452,
			"→": 453,
			"−": 454,
			"≤": 455,
			"⋯": 456,
			"─": 457,
			"│": 458,
			"■": 459,
			"□": 460,
			"○": 461,
			"●": 462,
			"★": 463,
			"☆": 464,
			"⟨": 465,
			"⟩": 466,
			"　": 467,
			"、": 468,
			"。": 469,
			"〇": 470,
			"〈": 471,
			"〉": 472,
			"《": 473,
			"》": 474,
			"「": 475,
			"」": 476,
			"『": 477,
			"』": 478,
			"【": 479,
			"】": 480,
			"〔": 481,
			"〕": 482,
			"〜": 483,
			"あ": 484,
			"い": 485,
			"う": 486,
			"え": 487,
			"お": 488,
			"か": 489,
			"が": 490,
			"き": 491,
			"く": 492,
			"け": 493,
			"こ": 494,
			"さ": 495,
			"し": 496,
			"じ": 497,
			"す": 498,
			"そ": 499,
			"た": 500,
			"だ": 501,
			"ち": 502,
			"っ": 503,
			"つ": 504,
			"て": 505,
			"で": 506,
			"と": 507,
			"ど": 508,
			"な": 509,
			"に": 510,
			"の": 511,
			"は": 512,
			"ひ": 513,
			"ま": 514,
			"み": 515,
			"め": 516,
			"も": 517,
			"ゃ": 518,
			"や": 519,
			"ゆ": 520,
			"よ": 521,
			"ら": 522,
			"り": 523,
			"る": 524,
			"れ": 525,
			"ろ": 526,
			"わ": 527,
			"を": 528,
			"ん": 529,
			"ァ": 530,
			"ア": 531,
			"ィ": 532,
			"イ": 533,
			"ウ": 534,
			"ェ": 535,
			"エ": 536,
			"オ": 537,
			"カ": 538,
			"ガ": 539,
			"キ": 540,
			"ク": 541,
			"グ": 542,
			"ケ": 543,
			"コ": 544,
			"サ": 545,
			"シ": 546,
			"ジ": 547,
			"ス": 548,
			"ズ": 549,
			"セ": 550,
			"タ": 551,
			"ダ": 552,
			"チ": 553,
			"ッ": 554,
			"ツ": 555,
			"テ": 556,
			"デ": 557,
			"ト": 558,
			"ド": 559,
			"ナ": 560,
			"ニ": 561,
			"ネ": 562,
			"ノ": 563,
			"ハ": 564,
			"バ": 565,
			"パ": 566,
			"ビ": 567,
			"フ": 568,
			"ブ": 569,
			"プ": 570,
			"ボ": 571,
			"マ": 572,
			"ミ": 573,
			"ム": 574,
			"メ": 575,
			"モ": 576,
			"ャ": 577,
			"ュ": 578,
			"ョ": 579,
			"ラ": 580,
			"リ": 581,
			"ル": 582,
			"レ": 583,
			"ロ": 584,
			"ワ": 585,
			"ン": 586,
			"・": 587,
			"ー": 588,
			"䲁": 589,
			"一": 590,
			"丁": 591,
			"七": 592,
			"丈": 593,
			"三": 594,
			"上": 595,
			"下": 596,
			"不": 597,
			"丐": 598,
			"丑": 599,
			"且": 600,
			"丕": 601,
			"世": 602,
			"丘": 603,
			"丙": 604,
			"丞": 605,
			"丟": 606,
			"並": 607,
			"丫": 608,
			"中": 609,
			"串": 610,
			"丶": 611,
			"丸": 612,
			"丹": 613,
			"主": 614,
			"乂": 615,
			"乃": 616,
			"久": 617,
			"么": 618,
			"之": 619,
			"乍": 620,
			"乎": 621,
			"乏": 622,
			"乒": 623,
			"乓": 624,
			"乖": 625,
			"乘": 626,
			"乙": 627,
			"九": 628,
			"乞": 629,
			"也": 630,
			"乩": 631,
			"乳": 632,
			"乾": 633,
			"亂": 634,
			"了": 635,
			"予": 636,
			"事": 637,
			"二": 638,
			"于": 639,
			"云": 640,
			"互": 641,
			"五": 642,
			"井": 643,
			"亙": 644,
			"些": 645,
			"亞": 646,
			"亟": 647,
			"亡": 648,
			"亢": 649,
			"交": 650,
			"亥": 651,
			"亦": 652,
			"亨": 653,
			"享": 654,
			"京": 655,
			"亭": 656,
			"亮": 657,
			"亳": 658,
			"人": 659,
			"什": 660,
			"仁": 661,
			"仄": 662,
			"仇": 663,
			"今": 664,
			"介": 665,
			"仍": 666,
			"仔": 667,
			"仕": 668,
			"他": 669,
			"仗": 670,
			"付": 671,
			"仙": 672,
			"代": 673,
			"令": 674,
			"以": 675,
			"仰": 676,
			"仲": 677,
			"件": 678,
			"任": 679,
			"份": 680,
			"仿": 681,
			"企": 682,
			"伊": 683,
			"伍": 684,
			"伎": 685,
			"伏": 686,
			"伐": 687,
			"休": 688,
			"伕": 689,
			"伙": 690,
			"伯": 691,
			"估": 692,
			"伴": 693,
			"伶": 694,
			"伸": 695,
			"伺": 696,
			"似": 697,
			"伽": 698,
			"佃": 699,
			"但": 700,
			"佇": 701,
			"佈": 702,
			"位": 703,
			"低": 704,
			"住": 705,
			"佐": 706,
			"佑": 707,
			"佔": 708,
			"何": 709,
			"佗": 710,
			"佘": 711,
			"余": 712,
			"佚": 713,
			"佛": 714,
			"作": 715,
			"佟": 716,
			"你": 717,
			"佤": 718,
			"佩": 719,
			"佬": 720,
			"佯": 721,
			"佰": 722,
			"佳": 723,
			"併": 724,
			"佼": 725,
			"使": 726,
			"侃": 727,
			"侄": 728,
			"來": 729,
			"侈": 730,
			"例": 731,
			"侍": 732,
			"侏": 733,
			"侑": 734,
			"侖": 735,
			"侗": 736,
			"供": 737,
			"依": 738,
			"侮": 739,
			"侯": 740,
			"侵": 741,
			"侶": 742,
			"侷": 743,
			"便": 744,
			"係": 745,
			"促": 746,
			"俄": 747,
			"俊": 748,
			"俏": 749,
			"俐": 750,
			"俑": 751,
			"俗": 752,
			"俘": 753,
			"俚": 754,
			"保": 755,
			"俞": 756,
			"俟": 757,
			"俠": 758,
			"信": 759,
			"俬": 760,
			"修": 761,
			"俯": 762,
			"俱": 763,
			"俳": 764,
			"俸": 765,
			"俺": 766,
			"俾": 767,
			"倆": 768,
			"倉": 769,
			"個": 770,
			"倍": 771,
			"們": 772,
			"倒": 773,
			"倖": 774,
			"倘": 775,
			"候": 776,
			"倚": 777,
			"借": 778,
			"倡": 779,
			"倦": 780,
			"倩": 781,
			"倪": 782,
			"倫": 783,
			"倭": 784,
			"值": 785,
			"偃": 786,
			"假": 787,
			"偈": 788,
			"偉": 789,
			"偏": 790,
			"偕": 791,
			"做": 792,
			"停": 793,
			"健": 794,
			"側": 795,
			"偵": 796,
			"偶": 797,
			"偷": 798,
			"偽": 799,
			"傀": 800,
			"傅": 801,
			"傍": 802,
			"傑": 803,
			"傘": 804,
			"備": 805,
			"傢": 806,
			"傣": 807,
			"催": 808,
			"傭": 809,
			"傲": 810,
			"傳": 811,
			"債": 812,
			"傷": 813,
			"傻": 814,
			"傾": 815,
			"僅": 816,
			"僉": 817,
			"像": 818,
			"僑": 819,
			"僕": 820,
			"僖": 821,
			"僚": 822,
			"僥": 823,
			"僧": 824,
			"僭": 825,
			"僱": 826,
			"僵": 827,
			"價": 828,
			"僻": 829,
			"儀": 830,
			"儁": 831,
			"儂": 832,
			"億": 833,
			"儉": 834,
			"儒": 835,
			"儘": 836,
			"償": 837,
			"儡": 838,
			"優": 839,
			"儲": 840,
			"儷": 841,
			"儼": 842,
			"兀": 843,
			"允": 844,
			"元": 845,
			"兄": 846,
			"充": 847,
			"兆": 848,
			"兇": 849,
			"先": 850,
			"光": 851,
			"克": 852,
			"兌": 853,
			"免": 854,
			"兒": 855,
			"兔": 856,
			"兗": 857,
			"兜": 858,
			"入": 859,
			"內": 860,
			"全": 861,
			"兩": 862,
			"八": 863,
			"公": 864,
			"六": 865,
			"兮": 866,
			"共": 867,
			"兵": 868,
			"其": 869,
			"具": 870,
			"典": 871,
			"兼": 872,
			"冀": 873,
			"冉": 874,
			"冊": 875,
			"再": 876,
			"冑": 877,
			"冒": 878,
			"冕": 879,
			"冗": 880,
			"冠": 881,
			"冢": 882,
			"冤": 883,
			"冥": 884,
			"冪": 885,
			"冬": 886,
			"冰": 887,
			"冴": 888,
			"冶": 889,
			"冷": 890,
			"冼": 891,
			"准": 892,
			"凋": 893,
			"凌": 894,
			"凍": 895,
			"凜": 896,
			"凝": 897,
			"凡": 898,
			"凪": 899,
			"凰": 900,
			"凱": 901,
			"凳": 902,
			"凶": 903,
			"凸": 904,
			"凹": 905,
			"出": 906,
			"函": 907,
			"刀": 908,
			"刁": 909,
			"刃": 910,
			"分": 911,
			"切": 912,
			"刈": 913,
			"刊": 914,
			"刑": 915,
			"划": 916,
			"列": 917,
			"初": 918,
			"判": 919,
			"別": 920,
			"利": 921,
			"刪": 922,
			"刮": 923,
			"到": 924,
			"制": 925,
			"刷": 926,
			"券": 927,
			"刺": 928,
			"刻": 929,
			"剃": 930,
			"則": 931,
			"削": 932,
			"剋": 933,
			"剌": 934,
			"前": 935,
			"剎": 936,
			"剔": 937,
			"剖": 938,
			"剛": 939,
			"剝": 940,
			"剩": 941,
			"剪": 942,
			"副": 943,
			"割": 944,
			"創": 945,
			"剷": 946,
			"剿": 947,
			"劃": 948,
			"劇": 949,
			"劈": 950,
			"劉": 951,
			"劍": 952,
			"劑": 953,
			"力": 954,
			"功": 955,
			"加": 956,
			"劣": 957,
			"助": 958,
			"努": 959,
			"劫": 960,
			"劭": 961,
			"劾": 962,
			"勁": 963,
			"勃": 964,
			"勇": 965,
			"勉": 966,
			"勐": 967,
			"勒": 968,
			"動": 969,
			"勖": 970,
			"勘": 971,
			"務": 972,
			"勛": 973,
			"勝": 974,
			"勞": 975,
			"募": 976,
			"勢": 977,
			"勤": 978,
			"勳": 979,
			"勵": 980,
			"勸": 981,
			"勺": 982,
			"勻": 983,
			"勾": 984,
			"勿": 985,
			"包": 986,
			"匆": 987,
			"匈": 988,
			"匐": 989,
			"匕": 990,
			"化": 991,
			"北": 992,
			"匙": 993,
			"匝": 994,
			"匠": 995,
			"匡": 996,
			"匣": 997,
			"匪": 998,
			"匯": 999,
			"匱": 1000,
			"匹": 1001,
			"匾": 1002,
			"匿": 1003,
			"區": 1004,
			"十": 1005,
			"千": 1006,
			"卅": 1007,
			"升": 1008,
			"午": 1009,
			"卉": 1010,
			"半": 1011,
			"卍": 1012,
			"卑": 1013,
			"卒": 1014,
			"卓": 1015,
			"協": 1016,
			"南": 1017,
			"博": 1018,
			"卜": 1019,
			"卞": 1020,
			"占": 1021,
			"卡": 1022,
			"卦": 1023,
			"卯": 1024,
			"印": 1025,
			"危": 1026,
			"即": 1027,
			"卵": 1028,
			"卷": 1029,
			"卸": 1030,
			"卹": 1031,
			"卻": 1032,
			"卿": 1033,
			"厄": 1034,
			"厚": 1035,
			"厝": 1036,
			"原": 1037,
			"厥": 1038,
			"厭": 1039,
			"厲": 1040,
			"去": 1041,
			"參": 1042,
			"又": 1043,
			"叉": 1044,
			"及": 1045,
			"友": 1046,
			"反": 1047,
			"叔": 1048,
			"取": 1049,
			"受": 1050,
			"叛": 1051,
			"叟": 1052,
			"叡": 1053,
			"叢": 1054,
			"口": 1055,
			"古": 1056,
			"句": 1057,
			"另": 1058,
			"叩": 1059,
			"只": 1060,
			"叫": 1061,
			"召": 1062,
			"叭": 1063,
			"叮": 1064,
			"可": 1065,
			"台": 1066,
			"叱": 1067,
			"史": 1068,
			"右": 1069,
			"司": 1070,
			"叻": 1071,
			"吃": 1072,
			"各": 1073,
			"合": 1074,
			"吉": 1075,
			"吊": 1076,
			"吋": 1077,
			"同": 1078,
			"名": 1079,
			"后": 1080,
			"吏": 1081,
			"吐": 1082,
			"向": 1083,
			"吒": 1084,
			"君": 1085,
			"吞": 1086,
			"吟": 1087,
			"吠": 1088,
			"吡": 1089,
			"否": 1090,
			"吧": 1091,
			"吩": 1092,
			"含": 1093,
			"吳": 1094,
			"吵": 1095,
			"吶": 1096,
			"吸": 1097,
			"吹": 1098,
			"吻": 1099,
			"吼": 1100,
			"吾": 1101,
			"呀": 1102,
			"呂": 1103,
			"呆": 1104,
			"呈": 1105,
			"告": 1106,
			"呋": 1107,
			"呎": 1108,
			"呢": 1109,
			"呤": 1110,
			"周": 1111,
			"味": 1112,
			"呵": 1113,
			"呼": 1114,
			"命": 1115,
			"咀": 1116,
			"咄": 1117,
			"咆": 1118,
			"和": 1119,
			"咎": 1120,
			"咐": 1121,
			"咒": 1122,
			"咕": 1123,
			"咖": 1124,
			"咪": 1125,
			"咬": 1126,
			"咯": 1127,
			"咲": 1128,
			"咳": 1129,
			"咸": 1130,
			"咽": 1131,
			"哀": 1132,
			"品": 1133,
			"哆": 1134,
			"哇": 1135,
			"哈": 1136,
			"哉": 1137,
			"員": 1138,
			"哥": 1139,
			"哨": 1140,
			"哩": 1141,
			"哪": 1142,
			"哭": 1143,
			"哮": 1144,
			"哲": 1145,
			"哺": 1146,
			"唁": 1147,
			"唆": 1148,
			"唇": 1149,
			"唐": 1150,
			"唑": 1151,
			"唔": 1152,
			"售": 1153,
			"唯": 1154,
			"唱": 1155,
			"唸": 1156,
			"唾": 1157,
			"啄": 1158,
			"商": 1159,
			"啉": 1160,
			"啊": 1161,
			"問": 1162,
			"啞": 1163,
			"啟": 1164,
			"啡": 1165,
			"啤": 1166,
			"啦": 1167,
			"啶": 1168,
			"啼": 1169,
			"喀": 1170,
			"喃": 1171,
			"善": 1172,
			"喆": 1173,
			"喇": 1174,
			"喉": 1175,
			"喊": 1176,
			"喘": 1177,
			"喙": 1178,
			"喚": 1179,
			"喜": 1180,
			"喝": 1181,
			"喧": 1182,
			"喪": 1183,
			"喬": 1184,
			"單": 1185,
			"喰": 1186,
			"喵": 1187,
			"喹": 1188,
			"喻": 1189,
			"嗅": 1190,
			"嗎": 1191,
			"嗓": 1192,
			"嗚": 1193,
			"嗜": 1194,
			"嗣": 1195,
			"嗪": 1196,
			"嗶": 1197,
			"嗽": 1198,
			"嘅": 1199,
			"嘆": 1200,
			"嘉": 1201,
			"嘌": 1202,
			"嘎": 1203,
			"嘔": 1204,
			"嘗": 1205,
			"嘛": 1206,
			"嘧": 1207,
			"嘩": 1208,
			"嘯": 1209,
			"嘲": 1210,
			"嘴": 1211,
			"嘻": 1212,
			"噁": 1213,
			"噓": 1214,
			"器": 1215,
			"噩": 1216,
			"噪": 1217,
			"噬": 1218,
			"噴": 1219,
			"噶": 1220,
			"噸": 1221,
			"噹": 1222,
			"噻": 1223,
			"嚇": 1224,
			"嚐": 1225,
			"嚕": 1226,
			"嚨": 1227,
			"嚮": 1228,
			"嚴": 1229,
			"嚼": 1230,
			"囂": 1231,
			"囉": 1232,
			"囊": 1233,
			"囑": 1234,
			"囚": 1235,
			"四": 1236,
			"回": 1237,
			"因": 1238,
			"囤": 1239,
			"囪": 1240,
			"困": 1241,
			"固": 1242,
			"圃": 1243,
			"圈": 1244,
			"國": 1245,
			"圍": 1246,
			"園": 1247,
			"圓": 1248,
			"圖": 1249,
			"團": 1250,
			"土": 1251,
			"在": 1252,
			"圩": 1253,
			"圭": 1254,
			"地": 1255,
			"圳": 1256,
			"圻": 1257,
			"圾": 1258,
			"址": 1259,
			"坂": 1260,
			"均": 1261,
			"坊": 1262,
			"坍": 1263,
			"坎": 1264,
			"坐": 1265,
			"坑": 1266,
			"坡": 1267,
			"坤": 1268,
			"坦": 1269,
			"坪": 1270,
			"坳": 1271,
			"坻": 1272,
			"垂": 1273,
			"垃": 1274,
			"型": 1275,
			"垛": 1276,
			"垢": 1277,
			"垣": 1278,
			"垮": 1279,
			"埃": 1280,
			"埋": 1281,
			"城": 1282,
			"埔": 1283,
			"埕": 1284,
			"埗": 1285,
			"域": 1286,
			"埠": 1287,
			"埡": 1288,
			"埤": 1289,
			"執": 1290,
			"培": 1291,
			"基": 1292,
			"埼": 1293,
			"堀": 1294,
			"堂": 1295,
			"堃": 1296,
			"堅": 1297,
			"堆": 1298,
			"堇": 1299,
			"堊": 1300,
			"堡": 1301,
			"堤": 1302,
			"堪": 1303,
			"堯": 1304,
			"堰": 1305,
			"報": 1306,
			"場": 1307,
			"堵": 1308,
			"堺": 1309,
			"塊": 1310,
			"塌": 1311,
			"塑": 1312,
			"塔": 1313,
			"塗": 1314,
			"塘": 1315,
			"塚": 1316,
			"塞": 1317,
			"塢": 1318,
			"填": 1319,
			"塭": 1320,
			"塵": 1321,
			"塹": 1322,
			"塾": 1323,
			"境": 1324,
			"墅": 1325,
			"墊": 1326,
			"墓": 1327,
			"墘": 1328,
			"墜": 1329,
			"增": 1330,
			"墟": 1331,
			"墨": 1332,
			"墩": 1333,
			"墮": 1334,
			"墳": 1335,
			"墻": 1336,
			"墾": 1337,
			"壁": 1338,
			"壇": 1339,
			"壑": 1340,
			"壓": 1341,
			"壕": 1342,
			"壘": 1343,
			"壞": 1344,
			"壟": 1345,
			"壠": 1346,
			"壢": 1347,
			"壤": 1348,
			"壩": 1349,
			"士": 1350,
			"壬": 1351,
			"壯": 1352,
			"壹": 1353,
			"壺": 1354,
			"壽": 1355,
			"夏": 1356,
			"夔": 1357,
			"夕": 1358,
			"外": 1359,
			"多": 1360,
			"夜": 1361,
			"夠": 1362,
			"夢": 1363,
			"夥": 1364,
			"大": 1365,
			"天": 1366,
			"太": 1367,
			"夫": 1368,
			"夭": 1369,
			"央": 1370,
			"夯": 1371,
			"失": 1372,
			"夷": 1373,
			"夸": 1374,
			"夾": 1375,
			"奄": 1376,
			"奇": 1377,
			"奈": 1378,
			"奉": 1379,
			"奎": 1380,
			"奏": 1381,
			"契": 1382,
			"奔": 1383,
			"奕": 1384,
			"套": 1385,
			"奘": 1386,
			"奚": 1387,
			"奠": 1388,
			"奢": 1389,
			"奧": 1390,
			"奪": 1391,
			"奬": 1392,
			"奮": 1393,
			"女": 1394,
			"奴": 1395,
			"奶": 1396,
			"奸": 1397,
			"她": 1398,
			"好": 1399,
			"如": 1400,
			"妃": 1401,
			"妄": 1402,
			"妊": 1403,
			"妍": 1404,
			"妒": 1405,
			"妓": 1406,
			"妖": 1407,
			"妙": 1408,
			"妝": 1409,
			"妞": 1410,
			"妤": 1411,
			"妥": 1412,
			"妨": 1413,
			"妮": 1414,
			"妲": 1415,
			"妳": 1416,
			"妹": 1417,
			"妻": 1418,
			"妾": 1419,
			"姆": 1420,
			"姊": 1421,
			"始": 1422,
			"姍": 1423,
			"姐": 1424,
			"姑": 1425,
			"姓": 1426,
			"委": 1427,
			"姚": 1428,
			"姜": 1429,
			"姥": 1430,
			"姦": 1431,
			"姨": 1432,
			"姪": 1433,
			"姫": 1434,
			"姬": 1435,
			"姻": 1436,
			"姿": 1437,
			"威": 1438,
			"娃": 1439,
			"娑": 1440,
			"娘": 1441,
			"娛": 1442,
			"娜": 1443,
			"娟": 1444,
			"娠": 1445,
			"娣": 1446,
			"娥": 1447,
			"娩": 1448,
			"娶": 1449,
			"娼": 1450,
			"婁": 1451,
			"婆": 1452,
			"婉": 1453,
			"婕": 1454,
			"婚": 1455,
			"婢": 1456,
			"婦": 1457,
			"婪": 1458,
			"婭": 1459,
			"婷": 1460,
			"婺": 1461,
			"婿": 1462,
			"媒": 1463,
			"媚": 1464,
			"媛": 1465,
			"媧": 1466,
			"媲": 1467,
			"媳": 1468,
			"媽": 1469,
			"嫁": 1470,
			"嫂": 1471,
			"嫉": 1472,
			"嫌": 1473,
			"嫖": 1474,
			"嫡": 1475,
			"嫣": 1476,
			"嫦": 1477,
			"嫩": 1478,
			"嫻": 1479,
			"嬅": 1480,
			"嬉": 1481,
			"嬌": 1482,
			"嬤": 1483,
			"嬪": 1484,
			"嬰": 1485,
			"嬴": 1486,
			"孀": 1487,
			"孃": 1488,
			"子": 1489,
			"孔": 1490,
			"孕": 1491,
			"字": 1492,
			"存": 1493,
			"孚": 1494,
			"孛": 1495,
			"孜": 1496,
			"孝": 1497,
			"孟": 1498,
			"孢": 1499,
			"季": 1500,
			"孤": 1501,
			"孩": 1502,
			"孫": 1503,
			"孰": 1504,
			"孵": 1505,
			"學": 1506,
			"孺": 1507,
			"孽": 1508,
			"孿": 1509,
			"它": 1510,
			"宅": 1511,
			"宇": 1512,
			"守": 1513,
			"安": 1514,
			"宋": 1515,
			"完": 1516,
			"宏": 1517,
			"宕": 1518,
			"宗": 1519,
			"官": 1520,
			"宙": 1521,
			"定": 1522,
			"宛": 1523,
			"宜": 1524,
			"客": 1525,
			"宣": 1526,
			"室": 1527,
			"宥": 1528,
			"宦": 1529,
			"宮": 1530,
			"宰": 1531,
			"害": 1532,
			"宴": 1533,
			"宵": 1534,
			"家": 1535,
			"宸": 1536,
			"容": 1537,
			"宿": 1538,
			"寂": 1539,
			"寄": 1540,
			"寅": 1541,
			"密": 1542,
			"寇": 1543,
			"富": 1544,
			"寒": 1545,
			"寓": 1546,
			"寛": 1547,
			"寞": 1548,
			"察": 1549,
			"寡": 1550,
			"寢": 1551,
			"寥": 1552,
			"實": 1553,
			"寧": 1554,
			"寨": 1555,
			"審": 1556,
			"寫": 1557,
			"寬": 1558,
			"寮": 1559,
			"寰": 1560,
			"寵": 1561,
			"寶": 1562,
			"寸": 1563,
			"寺": 1564,
			"封": 1565,
			"射": 1566,
			"將": 1567,
			"專": 1568,
			"尉": 1569,
			"尊": 1570,
			"尋": 1571,
			"對": 1572,
			"導": 1573,
			"小": 1574,
			"少": 1575,
			"尖": 1576,
			"尚": 1577,
			"尤": 1578,
			"尬": 1579,
			"就": 1580,
			"尷": 1581,
			"尹": 1582,
			"尺": 1583,
			"尻": 1584,
			"尼": 1585,
			"尾": 1586,
			"尿": 1587,
			"局": 1588,
			"屁": 1589,
			"居": 1590,
			"屆": 1591,
			"屈": 1592,
			"屋": 1593,
			"屍": 1594,
			"屎": 1595,
			"屏": 1596,
			"屑": 1597,
			"展": 1598,
			"屠": 1599,
			"屢": 1600,
			"層": 1601,
			"履": 1602,
			"屬": 1603,
			"屯": 1604,
			"山": 1605,
			"屹": 1606,
			"岌": 1607,
			"岐": 1608,
			"岑": 1609,
			"岔": 1610,
			"岙": 1611,
			"岡": 1612,
			"岩": 1613,
			"岬": 1614,
			"岱": 1615,
			"岳": 1616,
			"岷": 1617,
			"岸": 1618,
			"峇": 1619,
			"峒": 1620,
			"峙": 1621,
			"峨": 1622,
			"峪": 1623,
			"峭": 1624,
			"峰": 1625,
			"峴": 1626,
			"島": 1627,
			"峻": 1628,
			"峽": 1629,
			"崁": 1630,
			"崇": 1631,
			"崎": 1632,
			"崑": 1633,
			"崔": 1634,
			"崖": 1635,
			"崗": 1636,
			"崙": 1637,
			"崛": 1638,
			"崧": 1639,
			"崩": 1640,
			"崴": 1641,
			"嵇": 1642,
			"嵊": 1643,
			"嵌": 1644,
			"嵐": 1645,
			"嵩": 1646,
			"嶄": 1647,
			"嶇": 1648,
			"嶋": 1649,
			"嶠": 1650,
			"嶺": 1651,
			"嶼": 1652,
			"嶽": 1653,
			"巍": 1654,
			"巒": 1655,
			"巔": 1656,
			"巖": 1657,
			"川": 1658,
			"州": 1659,
			"巡": 1660,
			"巢": 1661,
			"工": 1662,
			"左": 1663,
			"巧": 1664,
			"巨": 1665,
			"巫": 1666,
			"差": 1667,
			"己": 1668,
			"已": 1669,
			"巳": 1670,
			"巴": 1671,
			"巷": 1672,
			"巽": 1673,
			"巾": 1674,
			"市": 1675,
			"布": 1676,
			"帆": 1677,
			"希": 1678,
			"帑": 1679,
			"帕": 1680,
			"帖": 1681,
			"帚": 1682,
			"帛": 1683,
			"帝": 1684,
			"帥": 1685,
			"師": 1686,
			"席": 1687,
			"帳": 1688,
			"帶": 1689,
			"帷": 1690,
			"常": 1691,
			"帽": 1692,
			"幀": 1693,
			"幅": 1694,
			"幌": 1695,
			"幔": 1696,
			"幕": 1697,
			"幟": 1698,
			"幡": 1699,
			"幢": 1700,
			"幣": 1701,
			"幫": 1702,
			"干": 1703,
			"平": 1704,
			"年": 1705,
			"幷": 1706,
			"幸": 1707,
			"幹": 1708,
			"幻": 1709,
			"幼": 1710,
			"幽": 1711,
			"幾": 1712,
			"庇": 1713,
			"床": 1714,
			"序": 1715,
			"底": 1716,
			"店": 1717,
			"庚": 1718,
			"府": 1719,
			"庠": 1720,
			"度": 1721,
			"座": 1722,
			"庫": 1723,
			"庭": 1724,
			"庵": 1725,
			"庶": 1726,
			"康": 1727,
			"庸": 1728,
			"庾": 1729,
			"廁": 1730,
			"廂": 1731,
			"廄": 1732,
			"廈": 1733,
			"廉": 1734,
			"廊": 1735,
			"廍": 1736,
			"廓": 1737,
			"廖": 1738,
			"廚": 1739,
			"廝": 1740,
			"廟": 1741,
			"廠": 1742,
			"廡": 1743,
			"廢": 1744,
			"廣": 1745,
			"廩": 1746,
			"廬": 1747,
			"廳": 1748,
			"延": 1749,
			"廷": 1750,
			"建": 1751,
			"廿": 1752,
			"弁": 1753,
			"弄": 1754,
			"弈": 1755,
			"弊": 1756,
			"弋": 1757,
			"式": 1758,
			"弒": 1759,
			"弓": 1760,
			"弔": 1761,
			"引": 1762,
			"弗": 1763,
			"弘": 1764,
			"弛": 1765,
			"弟": 1766,
			"弦": 1767,
			"弧": 1768,
			"弩": 1769,
			"弱": 1770,
			"張": 1771,
			"強": 1772,
			"弼": 1773,
			"彈": 1774,
			"彌": 1775,
			"彎": 1776,
			"彗": 1777,
			"彙": 1778,
			"彝": 1779,
			"形": 1780,
			"彤": 1781,
			"彥": 1782,
			"彧": 1783,
			"彩": 1784,
			"彪": 1785,
			"彬": 1786,
			"彭": 1787,
			"彰": 1788,
			"影": 1789,
			"彷": 1790,
			"役": 1791,
			"彼": 1792,
			"彿": 1793,
			"往": 1794,
			"征": 1795,
			"待": 1796,
			"很": 1797,
			"徊": 1798,
			"律": 1799,
			"後": 1800,
			"徐": 1801,
			"徑": 1802,
			"徒": 1803,
			"得": 1804,
			"徘": 1805,
			"徙": 1806,
			"從": 1807,
			"徠": 1808,
			"御": 1809,
			"復": 1810,
			"循": 1811,
			"微": 1812,
			"徳": 1813,
			"徵": 1814,
			"德": 1815,
			"徹": 1816,
			"徽": 1817,
			"心": 1818,
			"必": 1819,
			"忌": 1820,
			"忍": 1821,
			"忒": 1822,
			"志": 1823,
			"忘": 1824,
			"忙": 1825,
			"忠": 1826,
			"忤": 1827,
			"快": 1828,
			"忱": 1829,
			"念": 1830,
			"忻": 1831,
			"忽": 1832,
			"忿": 1833,
			"怎": 1834,
			"怒": 1835,
			"怕": 1836,
			"怖": 1837,
			"思": 1838,
			"怠": 1839,
			"怡": 1840,
			"急": 1841,
			"性": 1842,
			"怨": 1843,
			"怪": 1844,
			"怯": 1845,
			"恂": 1846,
			"恃": 1847,
			"恆": 1848,
			"恐": 1849,
			"恒": 1850,
			"恕": 1851,
			"恙": 1852,
			"恢": 1853,
			"恤": 1854,
			"恥": 1855,
			"恨": 1856,
			"恩": 1857,
			"恪": 1858,
			"恬": 1859,
			"恭": 1860,
			"息": 1861,
			"恰": 1862,
			"恿": 1863,
			"悄": 1864,
			"悅": 1865,
			"悉": 1866,
			"悌": 1867,
			"悍": 1868,
			"悔": 1869,
			"悖": 1870,
			"悚": 1871,
			"悟": 1872,
			"悠": 1873,
			"患": 1874,
			"您": 1875,
			"悲": 1876,
			"悶": 1877,
			"悼": 1878,
			"情": 1879,
			"惇": 1880,
			"惑": 1881,
			"惕": 1882,
			"惜": 1883,
			"惟": 1884,
			"惠": 1885,
			"惡": 1886,
			"惰": 1887,
			"惱": 1888,
			"惲": 1889,
			"想": 1890,
			"惶": 1891,
			"惹": 1892,
			"愁": 1893,
			"愈": 1894,
			"愉": 1895,
			"愍": 1896,
			"意": 1897,
			"愚": 1898,
			"愛": 1899,
			"感": 1900,
			"愧": 1901,
			"愫": 1902,
			"愷": 1903,
			"慄": 1904,
			"慈": 1905,
			"態": 1906,
			"慌": 1907,
			"慎": 1908,
			"慕": 1909,
			"慘": 1910,
			"慚": 1911,
			"慢": 1912,
			"慣": 1913,
			"慧": 1914,
			"慨": 1915,
			"慫": 1916,
			"慮": 1917,
			"慰": 1918,
			"慶": 1919,
			"慷": 1920,
			"慾": 1921,
			"憂": 1922,
			"憊": 1923,
			"憎": 1924,
			"憐": 1925,
			"憑": 1926,
			"憚": 1927,
			"憤": 1928,
			"憧": 1929,
			"憩": 1930,
			"憫": 1931,
			"憬": 1932,
			"憲": 1933,
			"憶": 1934,
			"憾": 1935,
			"懂": 1936,
			"懇": 1937,
			"懈": 1938,
			"應": 1939,
			"懋": 1940,
			"懦": 1941,
			"懲": 1942,
			"懶": 1943,
			"懷": 1944,
			"懸": 1945,
			"懺": 1946,
			"懼": 1947,
			"懾": 1948,
			"懿": 1949,
			"戀": 1950,
			"戈": 1951,
			"戊": 1952,
			"戌": 1953,
			"戍": 1954,
			"戎": 1955,
			"成": 1956,
			"我": 1957,
			"戒": 1958,
			"或": 1959,
			"戚": 1960,
			"戛": 1961,
			"戟": 1962,
			"戡": 1963,
			"戦": 1964,
			"截": 1965,
			"戮": 1966,
			"戰": 1967,
			"戲": 1968,
			"戳": 1969,
			"戴": 1970,
			"戶": 1971,
			"戸": 1972,
			"房": 1973,
			"所": 1974,
			"扁": 1975,
			"扇": 1976,
			"扈": 1977,
			"扉": 1978,
			"手": 1979,
			"才": 1980,
			"扎": 1981,
			"扒": 1982,
			"打": 1983,
			"扔": 1984,
			"托": 1985,
			"扛": 1986,
			"扣": 1987,
			"扭": 1988,
			"扮": 1989,
			"扯": 1990,
			"扳": 1991,
			"扶": 1992,
			"批": 1993,
			"扼": 1994,
			"找": 1995,
			"承": 1996,
			"技": 1997,
			"抄": 1998,
			"抉": 1999,
			"把": 2000,
			"抑": 2001,
			"抒": 2002,
			"抓": 2003,
			"投": 2004,
			"抖": 2005,
			"抗": 2006,
			"折": 2007,
			"抨": 2008,
			"披": 2009,
			"抬": 2010,
			"抱": 2011,
			"抵": 2012,
			"抹": 2013,
			"押": 2014,
			"抽": 2015,
			"拂": 2016,
			"拆": 2017,
			"拇": 2018,
			"拉": 2019,
			"拋": 2020,
			"拌": 2021,
			"拍": 2022,
			"拐": 2023,
			"拒": 2024,
			"拓": 2025,
			"拔": 2026,
			"拖": 2027,
			"拘": 2028,
			"拙": 2029,
			"拚": 2030,
			"招": 2031,
			"拜": 2032,
			"括": 2033,
			"拮": 2034,
			"拯": 2035,
			"拱": 2036,
			"拳": 2037,
			"拷": 2038,
			"拼": 2039,
			"拾": 2040,
			"拿": 2041,
			"持": 2042,
			"指": 2043,
			"按": 2044,
			"挑": 2045,
			"挖": 2046,
			"挨": 2047,
			"挪": 2048,
			"挫": 2049,
			"振": 2050,
			"挺": 2051,
			"挽": 2052,
			"挾": 2053,
			"捆": 2054,
			"捉": 2055,
			"捍": 2056,
			"捏": 2057,
			"捐": 2058,
			"捕": 2059,
			"捧": 2060,
			"捨": 2061,
			"捲": 2062,
			"捷": 2063,
			"捻": 2064,
			"掀": 2065,
			"掃": 2066,
			"授": 2067,
			"掉": 2068,
			"掌": 2069,
			"掏": 2070,
			"排": 2071,
			"掖": 2072,
			"掘": 2073,
			"掙": 2074,
			"掛": 2075,
			"掠": 2076,
			"採": 2077,
			"探": 2078,
			"掣": 2079,
			"接": 2080,
			"控": 2081,
			"推": 2082,
			"掩": 2083,
			"措": 2084,
			"掾": 2085,
			"揀": 2086,
			"揆": 2087,
			"揉": 2088,
			"描": 2089,
			"提": 2090,
			"插": 2091,
			"揖": 2092,
			"揚": 2093,
			"換": 2094,
			"握": 2095,
			"揣": 2096,
			"揭": 2097,
			"揮": 2098,
			"援": 2099,
			"揹": 2100,
			"損": 2101,
			"搏": 2102,
			"搖": 2103,
			"搗": 2104,
			"搜": 2105,
			"搞": 2106,
			"搬": 2107,
			"搭": 2108,
			"搶": 2109,
			"摒": 2110,
			"摔": 2111,
			"摘": 2112,
			"摧": 2113,
			"摩": 2114,
			"摯": 2115,
			"摸": 2116,
			"摹": 2117,
			"摺": 2118,
			"摻": 2119,
			"撃": 2120,
			"撇": 2121,
			"撈": 2122,
			"撐": 2123,
			"撒": 2124,
			"撓": 2125,
			"撕": 2126,
			"撞": 2127,
			"撣": 2128,
			"撤": 2129,
			"撥": 2130,
			"撫": 2131,
			"播": 2132,
			"撮": 2133,
			"撰": 2134,
			"撲": 2135,
			"撻": 2136,
			"撼": 2137,
			"撿": 2138,
			"擁": 2139,
			"擂": 2140,
			"擄": 2141,
			"擅": 2142,
			"擇": 2143,
			"擊": 2144,
			"擋": 2145,
			"操": 2146,
			"擎": 2147,
			"擒": 2148,
			"擔": 2149,
			"據": 2150,
			"擠": 2151,
			"擢": 2152,
			"擦": 2153,
			"擬": 2154,
			"擱": 2155,
			"擲": 2156,
			"擴": 2157,
			"擷": 2158,
			"擺": 2159,
			"擾": 2160,
			"攀": 2161,
			"攏": 2162,
			"攔": 2163,
			"攘": 2164,
			"攜": 2165,
			"攝": 2166,
			"攢": 2167,
			"攣": 2168,
			"攤": 2169,
			"攪": 2170,
			"攬": 2171,
			"支": 2172,
			"收": 2173,
			"攸": 2174,
			"改": 2175,
			"攻": 2176,
			"放": 2177,
			"政": 2178,
			"故": 2179,
			"效": 2180,
			"敍": 2181,
			"敏": 2182,
			"救": 2183,
			"敕": 2184,
			"敖": 2185,
			"敗": 2186,
			"敘": 2187,
			"教": 2188,
			"敞": 2189,
			"敢": 2190,
			"散": 2191,
			"敦": 2192,
			"敬": 2193,
			"敲": 2194,
			"整": 2195,
			"敵": 2196,
			"敷": 2197,
			"數": 2198,
			"斂": 2199,
			"斃": 2200,
			"文": 2201,
			"斌": 2202,
			"斐": 2203,
			"斑": 2204,
			"斗": 2205,
			"料": 2206,
			"斛": 2207,
			"斜": 2208,
			"斡": 2209,
			"斤": 2210,
			"斥": 2211,
			"斧": 2212,
			"斬": 2213,
			"斯": 2214,
			"新": 2215,
			"斷": 2216,
			"方": 2217,
			"於": 2218,
			"施": 2219,
			"旁": 2220,
			"旅": 2221,
			"旋": 2222,
			"旌": 2223,
			"族": 2224,
			"旗": 2225,
			"既": 2226,
			"日": 2227,
			"旦": 2228,
			"旨": 2229,
			"早": 2230,
			"旬": 2231,
			"旭": 2232,
			"旱": 2233,
			"旺": 2234,
			"旻": 2235,
			"昀": 2236,
			"昂": 2237,
			"昆": 2238,
			"昇": 2239,
			"昊": 2240,
			"昌": 2241,
			"明": 2242,
			"昏": 2243,
			"易": 2244,
			"昔": 2245,
			"昕": 2246,
			"星": 2247,
			"映": 2248,
			"春": 2249,
			"昧": 2250,
			"昨": 2251,
			"昭": 2252,
			"是": 2253,
			"昱": 2254,
			"昴": 2255,
			"昶": 2256,
			"晁": 2257,
			"時": 2258,
			"晃": 2259,
			"晉": 2260,
			"晏": 2261,
			"晚": 2262,
			"晝": 2263,
			"晞": 2264,
			"晟": 2265,
			"晤": 2266,
			"晦": 2267,
			"晨": 2268,
			"普": 2269,
			"景": 2270,
			"晰": 2271,
			"晴": 2272,
			"晶": 2273,
			"晷": 2274,
			"智": 2275,
			"暇": 2276,
			"暈": 2277,
			"暉": 2278,
			"暐": 2279,
			"暑": 2280,
			"暖": 2281,
			"暗": 2282,
			"暢": 2283,
			"暨": 2284,
			"暫": 2285,
			"暮": 2286,
			"暱": 2287,
			"暴": 2288,
			"暹": 2289,
			"曄": 2290,
			"曆": 2291,
			"曇": 2292,
			"曉": 2293,
			"曖": 2294,
			"曙": 2295,
			"曜": 2296,
			"曝": 2297,
			"曠": 2298,
			"曦": 2299,
			"曬": 2300,
			"曰": 2301,
			"曲": 2302,
			"曳": 2303,
			"更": 2304,
			"書": 2305,
			"曹": 2306,
			"曼": 2307,
			"曾": 2308,
			"替": 2309,
			"最": 2310,
			"會": 2311,
			"月": 2312,
			"有": 2313,
			"朋": 2314,
			"服": 2315,
			"朔": 2316,
			"朕": 2317,
			"朗": 2318,
			"望": 2319,
			"朝": 2320,
			"期": 2321,
			"朧": 2322,
			"木": 2323,
			"未": 2324,
			"末": 2325,
			"本": 2326,
			"札": 2327,
			"朱": 2328,
			"朴": 2329,
			"朵": 2330,
			"朽": 2331,
			"杆": 2332,
			"杉": 2333,
			"李": 2334,
			"杏": 2335,
			"材": 2336,
			"村": 2337,
			"杓": 2338,
			"杖": 2339,
			"杜": 2340,
			"杞": 2341,
			"束": 2342,
			"杭": 2343,
			"杯": 2344,
			"杰": 2345,
			"東": 2346,
			"杲": 2347,
			"杵": 2348,
			"松": 2349,
			"板": 2350,
			"枉": 2351,
			"枋": 2352,
			"析": 2353,
			"枕": 2354,
			"林": 2355,
			"枚": 2356,
			"果": 2357,
			"枝": 2358,
			"枯": 2359,
			"架": 2360,
			"枷": 2361,
			"柄": 2362,
			"柊": 2363,
			"柏": 2364,
			"某": 2365,
			"柑": 2366,
			"染": 2367,
			"柔": 2368,
			"柘": 2369,
			"柚": 2370,
			"查": 2371,
			"柩": 2372,
			"柬": 2373,
			"柯": 2374,
			"柱": 2375,
			"柳": 2376,
			"柴": 2377,
			"柵": 2378,
			"査": 2379,
			"柿": 2380,
			"栃": 2381,
			"栓": 2382,
			"栗": 2383,
			"校": 2384,
			"栢": 2385,
			"栩": 2386,
			"株": 2387,
			"核": 2388,
			"根": 2389,
			"格": 2390,
			"栽": 2391,
			"桀": 2392,
			"桁": 2393,
			"桂": 2394,
			"桃": 2395,
			"桅": 2396,
			"框": 2397,
			"案": 2398,
			"桌": 2399,
			"桐": 2400,
			"桑": 2401,
			"桓": 2402,
			"桔": 2403,
			"桶": 2404,
			"桿": 2405,
			"梁": 2406,
			"梅": 2407,
			"梓": 2408,
			"梗": 2409,
			"條": 2410,
			"梟": 2411,
			"梢": 2412,
			"梧": 2413,
			"梨": 2414,
			"梭": 2415,
			"梯": 2416,
			"械": 2417,
			"梳": 2418,
			"梵": 2419,
			"梶": 2420,
			"棄": 2421,
			"棉": 2422,
			"棋": 2423,
			"棍": 2424,
			"棒": 2425,
			"棕": 2426,
			"棗": 2427,
			"棘": 2428,
			"棚": 2429,
			"棟": 2430,
			"棠": 2431,
			"棣": 2432,
			"棧": 2433,
			"森": 2434,
			"棲": 2435,
			"棵": 2436,
			"棺": 2437,
			"椅": 2438,
			"植": 2439,
			"椎": 2440,
			"椒": 2441,
			"椰": 2442,
			"椿": 2443,
			"楊": 2444,
			"楓": 2445,
			"楔": 2446,
			"楚": 2447,
			"楞": 2448,
			"楠": 2449,
			"楣": 2450,
			"楨": 2451,
			"業": 2452,
			"極": 2453,
			"楷": 2454,
			"楹": 2455,
			"概": 2456,
			"榆": 2457,
			"榔": 2458,
			"榕": 2459,
			"榛": 2460,
			"榜": 2461,
			"榨": 2462,
			"榭": 2463,
			"榮": 2464,
			"榴": 2465,
			"榷": 2466,
			"榻": 2467,
			"槃": 2468,
			"構": 2469,
			"槌": 2470,
			"槍": 2471,
			"槐": 2472,
			"槓": 2473,
			"様": 2474,
			"槭": 2475,
			"槳": 2476,
			"槽": 2477,
			"槿": 2478,
			"樁": 2479,
			"樂": 2480,
			"樊": 2481,
			"樑": 2482,
			"樓": 2483,
			"標": 2484,
			"樞": 2485,
			"樟": 2486,
			"模": 2487,
			"樣": 2488,
			"樵": 2489,
			"樸": 2490,
			"樹": 2491,
			"樺": 2492,
			"樽": 2493,
			"橄": 2494,
			"橇": 2495,
			"橋": 2496,
			"橘": 2497,
			"橙": 2498,
			"機": 2499,
			"橡": 2500,
			"橢": 2501,
			"橫": 2502,
			"檀": 2503,
			"檄": 2504,
			"檎": 2505,
			"檔": 2506,
			"檗": 2507,
			"檜": 2508,
			"檢": 2509,
			"檬": 2510,
			"檯": 2511,
			"檳": 2512,
			"檸": 2513,
			"檻": 2514,
			"櫃": 2515,
			"櫚": 2516,
			"櫛": 2517,
			"櫟": 2518,
			"櫥": 2519,
			"櫸": 2520,
			"櫻": 2521,
			"欄": 2522,
			"權": 2523,
			"欒": 2524,
			"欖": 2525,
			"欠": 2526,
			"次": 2527,
			"欣": 2528,
			"欲": 2529,
			"欺": 2530,
			"欽": 2531,
			"款": 2532,
			"歆": 2533,
			"歇": 2534,
			"歉": 2535,
			"歌": 2536,
			"歎": 2537,
			"歐": 2538,
			"歙": 2539,
			"歡": 2540,
			"止": 2541,
			"正": 2542,
			"此": 2543,
			"步": 2544,
			"武": 2545,
			"歧": 2546,
			"歪": 2547,
			"歲": 2548,
			"歳": 2549,
			"歴": 2550,
			"歷": 2551,
			"歸": 2552,
			"歹": 2553,
			"死": 2554,
			"歿": 2555,
			"殆": 2556,
			"殉": 2557,
			"殊": 2558,
			"殖": 2559,
			"殘": 2560,
			"殤": 2561,
			"殭": 2562,
			"殮": 2563,
			"殯": 2564,
			"殲": 2565,
			"段": 2566,
			"殷": 2567,
			"殺": 2568,
			"殼": 2569,
			"殿": 2570,
			"毀": 2571,
			"毅": 2572,
			"毆": 2573,
			"毋": 2574,
			"母": 2575,
			"每": 2576,
			"毒": 2577,
			"毓": 2578,
			"比": 2579,
			"毗": 2580,
			"毘": 2581,
			"毛": 2582,
			"毫": 2583,
			"毯": 2584,
			"氈": 2585,
			"氏": 2586,
			"氐": 2587,
			"民": 2588,
			"氓": 2589,
			"氙": 2590,
			"氛": 2591,
			"氟": 2592,
			"氣": 2593,
			"氦": 2594,
			"氧": 2595,
			"氨": 2596,
			"氫": 2597,
			"氮": 2598,
			"氯": 2599,
			"氰": 2600,
			"水": 2601,
			"永": 2602,
			"氹": 2603,
			"氾": 2604,
			"汀": 2605,
			"汁": 2606,
			"求": 2607,
			"汐": 2608,
			"汕": 2609,
			"汗": 2610,
			"汙": 2611,
			"汛": 2612,
			"汝": 2613,
			"汞": 2614,
			"江": 2615,
			"池": 2616,
			"汪": 2617,
			"汰": 2618,
			"汲": 2619,
			"汴": 2620,
			"汶": 2621,
			"決": 2622,
			"汽": 2623,
			"汾": 2624,
			"沁": 2625,
			"沂": 2626,
			"沃": 2627,
			"沅": 2628,
			"沈": 2629,
			"沉": 2630,
			"沌": 2631,
			"沐": 2632,
			"沒": 2633,
			"沔": 2634,
			"沖": 2635,
			"沙": 2636,
			"沛": 2637,
			"沫": 2638,
			"沭": 2639,
			"沮": 2640,
			"沱": 2641,
			"河": 2642,
			"沸": 2643,
			"油": 2644,
			"治": 2645,
			"沼": 2646,
			"沽": 2647,
			"沾": 2648,
			"沿": 2649,
			"況": 2650,
			"泉": 2651,
			"泊": 2652,
			"泌": 2653,
			"泓": 2654,
			"法": 2655,
			"泗": 2656,
			"泛": 2657,
			"泡": 2658,
			"波": 2659,
			"泣": 2660,
			"泥": 2661,
			"注": 2662,
			"泮": 2663,
			"泰": 2664,
			"泳": 2665,
			"泵": 2666,
			"洄": 2667,
			"洋": 2668,
			"洗": 2669,
			"洙": 2670,
			"洛": 2671,
			"洞": 2672,
			"津": 2673,
			"洩": 2674,
			"洪": 2675,
			"洮": 2676,
			"洱": 2677,
			"洲": 2678,
			"洵": 2679,
			"洶": 2680,
			"活": 2681,
			"洽": 2682,
			"派": 2683,
			"流": 2684,
			"浙": 2685,
			"浚": 2686,
			"浜": 2687,
			"浣": 2688,
			"浦": 2689,
			"浩": 2690,
			"浪": 2691,
			"浮": 2692,
			"浴": 2693,
			"海": 2694,
			"浸": 2695,
			"涅": 2696,
			"涇": 2697,
			"消": 2698,
			"涉": 2699,
			"涌": 2700,
			"涕": 2701,
			"涪": 2702,
			"涯": 2703,
			"液": 2704,
			"涵": 2705,
			"涸": 2706,
			"涼": 2707,
			"涿": 2708,
			"淀": 2709,
			"淄": 2710,
			"淆": 2711,
			"淇": 2712,
			"淋": 2713,
			"淑": 2714,
			"淖": 2715,
			"淘": 2716,
			"淚": 2717,
			"淞": 2718,
			"淡": 2719,
			"淤": 2720,
			"淦": 2721,
			"淨": 2722,
			"淩": 2723,
			"淪": 2724,
			"淫": 2725,
			"淮": 2726,
			"深": 2727,
			"淳": 2728,
			"淵": 2729,
			"混": 2730,
			"淹": 2731,
			"淺": 2732,
			"添": 2733,
			"清": 2734,
			"渙": 2735,
			"渚": 2736,
			"減": 2737,
			"渝": 2738,
			"渠": 2739,
			"渡": 2740,
			"渣": 2741,
			"渤": 2742,
			"渥": 2743,
			"渦": 2744,
			"測": 2745,
			"渭": 2746,
			"港": 2747,
			"渲": 2748,
			"渴": 2749,
			"游": 2750,
			"渺": 2751,
			"渾": 2752,
			"湃": 2753,
			"湄": 2754,
			"湊": 2755,
			"湍": 2756,
			"湖": 2757,
			"湘": 2758,
			"湛": 2759,
			"湧": 2760,
			"湮": 2761,
			"湯": 2762,
			"湳": 2763,
			"溉": 2764,
			"源": 2765,
			"準": 2766,
			"溜": 2767,
			"溝": 2768,
			"溢": 2769,
			"溥": 2770,
			"溧": 2771,
			"溪": 2772,
			"溫": 2773,
			"溯": 2774,
			"溴": 2775,
			"溶": 2776,
			"溺": 2777,
			"溼": 2778,
			"滁": 2779,
			"滄": 2780,
			"滅": 2781,
			"滇": 2782,
			"滋": 2783,
			"滌": 2784,
			"滎": 2785,
			"滑": 2786,
			"滔": 2787,
			"滕": 2788,
			"滘": 2789,
			"滙": 2790,
			"滬": 2791,
			"滯": 2792,
			"滲": 2793,
			"滴": 2794,
			"滷": 2795,
			"滸": 2796,
			"滾": 2797,
			"滿": 2798,
			"漁": 2799,
			"漂": 2800,
			"漆": 2801,
			"漏": 2802,
			"演": 2803,
			"漕": 2804,
			"漠": 2805,
			"漢": 2806,
			"漣": 2807,
			"漩": 2808,
			"漪": 2809,
			"漫": 2810,
			"漬": 2811,
			"漯": 2812,
			"漱": 2813,
			"漲": 2814,
			"漳": 2815,
			"漸": 2816,
			"漾": 2817,
			"漿": 2818,
			"潁": 2819,
			"潑": 2820,
			"潔": 2821,
			"潘": 2822,
			"潛": 2823,
			"潞": 2824,
			"潟": 2825,
			"潢": 2826,
			"潤": 2827,
			"潭": 2828,
			"潮": 2829,
			"潯": 2830,
			"潰": 2831,
			"潼": 2832,
			"澀": 2833,
			"澄": 2834,
			"澆": 2835,
			"澇": 2836,
			"澈": 2837,
			"澍": 2838,
			"澎": 2839,
			"澗": 2840,
			"澡": 2841,
			"澤": 2842,
			"澧": 2843,
			"澱": 2844,
			"澳": 2845,
			"澹": 2846,
			"激": 2847,
			"濁": 2848,
			"濂": 2849,
			"濃": 2850,
			"濕": 2851,
			"濛": 2852,
			"濟": 2853,
			"濠": 2854,
			"濤": 2855,
			"濫": 2856,
			"濬": 2857,
			"濮": 2858,
			"濰": 2859,
			"濱": 2860,
			"濺": 2861,
			"濾": 2862,
			"瀆": 2863,
			"瀉": 2864,
			"瀋": 2865,
			"瀏": 2866,
			"瀑": 2867,
			"瀕": 2868,
			"瀘": 2869,
			"瀚": 2870,
			"瀛": 2871,
			"瀝": 2872,
			"瀟": 2873,
			"瀧": 2874,
			"瀨": 2875,
			"瀬": 2876,
			"瀰": 2877,
			"瀾": 2878,
			"灌": 2879,
			"灑": 2880,
			"灘": 2881,
			"灝": 2882,
			"灣": 2883,
			"灤": 2884,
			"火": 2885,
			"灰": 2886,
			"灶": 2887,
			"灸": 2888,
			"灼": 2889,
			"災": 2890,
			"炊": 2891,
			"炎": 2892,
			"炒": 2893,
			"炔": 2894,
			"炙": 2895,
			"炫": 2896,
			"炬": 2897,
			"炭": 2898,
			"炮": 2899,
			"炯": 2900,
			"炱": 2901,
			"炳": 2902,
			"炸": 2903,
			"為": 2904,
			"烈": 2905,
			"烏": 2906,
			"烘": 2907,
			"烙": 2908,
			"烤": 2909,
			"烯": 2910,
			"烴": 2911,
			"烷": 2912,
			"烹": 2913,
			"烽": 2914,
			"焉": 2915,
			"焊": 2916,
			"焙": 2917,
			"焚": 2918,
			"無": 2919,
			"焦": 2920,
			"焯": 2921,
			"焰": 2922,
			"然": 2923,
			"煉": 2924,
			"煌": 2925,
			"煎": 2926,
			"煒": 2927,
			"煙": 2928,
			"煜": 2929,
			"煞": 2930,
			"煤": 2931,
			"煥": 2932,
			"煦": 2933,
			"照": 2934,
			"煩": 2935,
			"煬": 2936,
			"煮": 2937,
			"煽": 2938,
			"熄": 2939,
			"熊": 2940,
			"熒": 2941,
			"熔": 2942,
			"熙": 2943,
			"熟": 2944,
			"熬": 2945,
			"熱": 2946,
			"熵": 2947,
			"熹": 2948,
			"熾": 2949,
			"燁": 2950,
			"燃": 2951,
			"燈": 2952,
			"燉": 2953,
			"燊": 2954,
			"燒": 2955,
			"燕": 2956,
			"燙": 2957,
			"營": 2958,
			"燥": 2959,
			"燦": 2960,
			"燧": 2961,
			"燬": 2962,
			"燭": 2963,
			"燮": 2964,
			"燻": 2965,
			"燼": 2966,
			"燾": 2967,
			"爆": 2968,
			"爍": 2969,
			"爐": 2970,
			"爛": 2971,
			"爪": 2972,
			"爬": 2973,
			"爭": 2974,
			"爵": 2975,
			"父": 2976,
			"爸": 2977,
			"爹": 2978,
			"爺": 2979,
			"爽": 2980,
			"爾": 2981,
			"牆": 2982,
			"片": 2983,
			"版": 2984,
			"牌": 2985,
			"牒": 2986,
			"牘": 2987,
			"牙": 2988,
			"牛": 2989,
			"牟": 2990,
			"牠": 2991,
			"牡": 2992,
			"牢": 2993,
			"牧": 2994,
			"物": 2995,
			"牲": 2996,
			"牴": 2997,
			"特": 2998,
			"牽": 2999,
			"犀": 3000,
			"犁": 3001,
			"犍": 3002,
			"犛": 3003,
			"犢": 3004,
			"犧": 3005,
			"犬": 3006,
			"犯": 3007,
			"狀": 3008,
			"狂": 3009,
			"狄": 3010,
			"狐": 3011,
			"狗": 3012,
			"狙": 3013,
			"狠": 3014,
			"狡": 3015,
			"狩": 3016,
			"狸": 3017,
			"狹": 3018,
			"狼": 3019,
			"猖": 3020,
			"猛": 3021,
			"猜": 3022,
			"猝": 3023,
			"猥": 3024,
			"猩": 3025,
			"猴": 3026,
			"猶": 3027,
			"猷": 3028,
			"猾": 3029,
			"猿": 3030,
			"獄": 3031,
			"獅": 3032,
			"獎": 3033,
			"獠": 3034,
			"獨": 3035,
			"獲": 3036,
			"獵": 3037,
			"獸": 3038,
			"獺": 3039,
			"獻": 3040,
			"獼": 3041,
			"獾": 3042,
			"玄": 3043,
			"率": 3044,
			"玉": 3045,
			"王": 3046,
			"玖": 3047,
			"玟": 3048,
			"玩": 3049,
			"玫": 3050,
			"玲": 3051,
			"玻": 3052,
			"珀": 3053,
			"珂": 3054,
			"珈": 3055,
			"珉": 3056,
			"珊": 3057,
			"珍": 3058,
			"珞": 3059,
			"珠": 3060,
			"珥": 3061,
			"珩": 3062,
			"珪": 3063,
			"班": 3064,
			"珮": 3065,
			"現": 3066,
			"球": 3067,
			"琅": 3068,
			"理": 3069,
			"琉": 3070,
			"琊": 3071,
			"琛": 3072,
			"琢": 3073,
			"琥": 3074,
			"琦": 3075,
			"琨": 3076,
			"琪": 3077,
			"琬": 3078,
			"琮": 3079,
			"琰": 3080,
			"琳": 3081,
			"琴": 3082,
			"琵": 3083,
			"琶": 3084,
			"琿": 3085,
			"瑄": 3086,
			"瑋": 3087,
			"瑕": 3088,
			"瑙": 3089,
			"瑚": 3090,
			"瑛": 3091,
			"瑜": 3092,
			"瑞": 3093,
			"瑟": 3094,
			"瑠": 3095,
			"瑣": 3096,
			"瑤": 3097,
			"瑩": 3098,
			"瑪": 3099,
			"瑭": 3100,
			"瑯": 3101,
			"瑰": 3102,
			"瑾": 3103,
			"璃": 3104,
			"璇": 3105,
			"璉": 3106,
			"璋": 3107,
			"璐": 3108,
			"璘": 3109,
			"璜": 3110,
			"璞": 3111,
			"璟": 3112,
			"璣": 3113,
			"璧": 3114,
			"璨": 3115,
			"環": 3116,
			"璽": 3117,
			"瓊": 3118,
			"瓏": 3119,
			"瓘": 3120,
			"瓚": 3121,
			"瓜": 3122,
			"瓢": 3123,
			"瓣": 3124,
			"瓦": 3125,
			"瓶": 3126,
			"瓷": 3127,
			"甄": 3128,
			"甌": 3129,
			"甕": 3130,
			"甘": 3131,
			"甚": 3132,
			"甜": 3133,
			"生": 3134,
			"產": 3135,
			"産": 3136,
			"甥": 3137,
			"甦": 3138,
			"用": 3139,
			"甩": 3140,
			"甫": 3141,
			"甬": 3142,
			"甯": 3143,
			"田": 3144,
			"由": 3145,
			"甲": 3146,
			"申": 3147,
			"男": 3148,
			"甸": 3149,
			"町": 3150,
			"甾": 3151,
			"界": 3152,
			"畏": 3153,
			"畑": 3154,
			"畔": 3155,
			"留": 3156,
			"畜": 3157,
			"畝": 3158,
			"畠": 3159,
			"畢": 3160,
			"略": 3161,
			"番": 3162,
			"畫": 3163,
			"異": 3164,
			"畲": 3165,
			"當": 3166,
			"畸": 3167,
			"畹": 3168,
			"畿": 3169,
			"疆": 3170,
			"疇": 3171,
			"疊": 3172,
			"疏": 3173,
			"疑": 3174,
			"疚": 3175,
			"疣": 3176,
			"疤": 3177,
			"疫": 3178,
			"疲": 3179,
			"疵": 3180,
			"疹": 3181,
			"疼": 3182,
			"疽": 3183,
			"疾": 3184,
			"病": 3185,
			"症": 3186,
			"痊": 3187,
			"痕": 3188,
			"痘": 3189,
			"痙": 3190,
			"痛": 3191,
			"痰": 3192,
			"痴": 3193,
			"痺": 3194,
			"瘋": 3195,
			"瘍": 3196,
			"瘓": 3197,
			"瘟": 3198,
			"瘠": 3199,
			"瘡": 3200,
			"瘤": 3201,
			"瘦": 3202,
			"瘧": 3203,
			"療": 3204,
			"癇": 3205,
			"癌": 3206,
			"癒": 3207,
			"癖": 3208,
			"癢": 3209,
			"癥": 3210,
			"癬": 3211,
			"癮": 3212,
			"癱": 3213,
			"癲": 3214,
			"癸": 3215,
			"登": 3216,
			"發": 3217,
			"白": 3218,
			"百": 3219,
			"皂": 3220,
			"的": 3221,
			"皆": 3222,
			"皇": 3223,
			"皈": 3224,
			"皋": 3225,
			"皎": 3226,
			"皓": 3227,
			"皖": 3228,
			"皮": 3229,
			"皰": 3230,
			"皺": 3231,
			"皿": 3232,
			"盂": 3233,
			"盃": 3234,
			"盆": 3235,
			"盈": 3236,
			"益": 3237,
			"盎": 3238,
			"盒": 3239,
			"盔": 3240,
			"盛": 3241,
			"盜": 3242,
			"盞": 3243,
			"盟": 3244,
			"盡": 3245,
			"監": 3246,
			"盤": 3247,
			"盧": 3248,
			"盪": 3249,
			"目": 3250,
			"盯": 3251,
			"盲": 3252,
			"直": 3253,
			"相": 3254,
			"盼": 3255,
			"盾": 3256,
			"省": 3257,
			"眉": 3258,
			"看": 3259,
			"真": 3260,
			"眠": 3261,
			"眩": 3262,
			"眶": 3263,
			"眷": 3264,
			"眺": 3265,
			"眼": 3266,
			"眾": 3267,
			"睛": 3268,
			"睜": 3269,
			"睞": 3270,
			"睡": 3271,
			"睢": 3272,
			"督": 3273,
			"睦": 3274,
			"睪": 3275,
			"睫": 3276,
			"睹": 3277,
			"睽": 3278,
			"睿": 3279,
			"瞄": 3280,
			"瞎": 3281,
			"瞞": 3282,
			"瞬": 3283,
			"瞭": 3284,
			"瞰": 3285,
			"瞳": 3286,
			"瞻": 3287,
			"瞿": 3288,
			"矇": 3289,
			"矗": 3290,
			"矚": 3291,
			"矛": 3292,
			"矢": 3293,
			"矣": 3294,
			"知": 3295,
			"矩": 3296,
			"短": 3297,
			"矮": 3298,
			"矯": 3299,
			"石": 3300,
			"矽": 3301,
			"砂": 3302,
			"砌": 3303,
			"砍": 3304,
			"研": 3305,
			"砥": 3306,
			"砲": 3307,
			"破": 3308,
			"砵": 3309,
			"砷": 3310,
			"砸": 3311,
			"硃": 3312,
			"硒": 3313,
			"硝": 3314,
			"硤": 3315,
			"硫": 3316,
			"硬": 3317,
			"硯": 3318,
			"硼": 3319,
			"碁": 3320,
			"碇": 3321,
			"碉": 3322,
			"碌": 3323,
			"碎": 3324,
			"碑": 3325,
			"碗": 3326,
			"碘": 3327,
			"碟": 3328,
			"碧": 3329,
			"碩": 3330,
			"碰": 3331,
			"碲": 3332,
			"碳": 3333,
			"確": 3334,
			"碼": 3335,
			"碾": 3336,
			"磁": 3337,
			"磅": 3338,
			"磊": 3339,
			"磋": 3340,
			"磐": 3341,
			"磚": 3342,
			"磡": 3343,
			"磨": 3344,
			"磯": 3345,
			"磷": 3346,
			"磺": 3347,
			"礁": 3348,
			"礎": 3349,
			"礙": 3350,
			"礦": 3351,
			"礪": 3352,
			"礫": 3353,
			"礬": 3354,
			"示": 3355,
			"社": 3356,
			"祀": 3357,
			"祁": 3358,
			"祂": 3359,
			"祇": 3360,
			"祈": 3361,
			"祉": 3362,
			"祐": 3363,
			"祖": 3364,
			"祗": 3365,
			"祚": 3366,
			"祜": 3367,
			"祝": 3368,
			"神": 3369,
			"祠": 3370,
			"祥": 3371,
			"票": 3372,
			"祭": 3373,
			"祺": 3374,
			"祿": 3375,
			"禁": 3376,
			"禍": 3377,
			"禎": 3378,
			"福": 3379,
			"禕": 3380,
			"禦": 3381,
			"禧": 3382,
			"禪": 3383,
			"禮": 3384,
			"禰": 3385,
			"禱": 3386,
			"禹": 3387,
			"禺": 3388,
			"禽": 3389,
			"禾": 3390,
			"禿": 3391,
			"秀": 3392,
			"私": 3393,
			"秉": 3394,
			"秋": 3395,
			"科": 3396,
			"秒": 3397,
			"秘": 3398,
			"租": 3399,
			"秤": 3400,
			"秦": 3401,
			"秧": 3402,
			"秩": 3403,
			"移": 3404,
			"稀": 3405,
			"稅": 3406,
			"程": 3407,
			"稍": 3408,
			"稔": 3409,
			"稚": 3410,
			"稜": 3411,
			"稟": 3412,
			"稠": 3413,
			"種": 3414,
			"稱": 3415,
			"稷": 3416,
			"稻": 3417,
			"稼": 3418,
			"稽": 3419,
			"稿": 3420,
			"穀": 3421,
			"穆": 3422,
			"穌": 3423,
			"積": 3424,
			"穎": 3425,
			"穗": 3426,
			"穢": 3427,
			"穩": 3428,
			"穫": 3429,
			"穴": 3430,
			"究": 3431,
			"穹": 3432,
			"空": 3433,
			"穿": 3434,
			"突": 3435,
			"窄": 3436,
			"窒": 3437,
			"窖": 3438,
			"窗": 3439,
			"窘": 3440,
			"窟": 3441,
			"窩": 3442,
			"窪": 3443,
			"窮": 3444,
			"窯": 3445,
			"窺": 3446,
			"竄": 3447,
			"竅": 3448,
			"竇": 3449,
			"竊": 3450,
			"立": 3451,
			"站": 3452,
			"竟": 3453,
			"章": 3454,
			"竣": 3455,
			"童": 3456,
			"竭": 3457,
			"端": 3458,
			"競": 3459,
			"竹": 3460,
			"竺": 3461,
			"竿": 3462,
			"笈": 3463,
			"笏": 3464,
			"笑": 3465,
			"笙": 3466,
			"笛": 3467,
			"笠": 3468,
			"符": 3469,
			"笨": 3470,
			"第": 3471,
			"笹": 3472,
			"筆": 3473,
			"等": 3474,
			"筋": 3475,
			"筍": 3476,
			"筏": 3477,
			"筑": 3478,
			"筒": 3479,
			"答": 3480,
			"策": 3481,
			"筠": 3482,
			"筱": 3483,
			"筲": 3484,
			"筵": 3485,
			"筷": 3486,
			"箇": 3487,
			"箋": 3488,
			"箍": 3489,
			"箏": 3490,
			"箔": 3491,
			"箕": 3492,
			"算": 3493,
			"管": 3494,
			"箭": 3495,
			"箱": 3496,
			"箴": 3497,
			"節": 3498,
			"範": 3499,
			"篆": 3500,
			"篇": 3501,
			"築": 3502,
			"篠": 3503,
			"篡": 3504,
			"篤": 3505,
			"篩": 3506,
			"篷": 3507,
			"簇": 3508,
			"簡": 3509,
			"簧": 3510,
			"簪": 3511,
			"簫": 3512,
			"簷": 3513,
			"簽": 3514,
			"簾": 3515,
			"簿": 3516,
			"籃": 3517,
			"籌": 3518,
			"籍": 3519,
			"籠": 3520,
			"籤": 3521,
			"籬": 3522,
			"籲": 3523,
			"米": 3524,
			"籽": 3525,
			"粉": 3526,
			"粒": 3527,
			"粗": 3528,
			"粘": 3529,
			"粟": 3530,
			"粥": 3531,
			"粱": 3532,
			"粲": 3533,
			"粵": 3534,
			"粹": 3535,
			"粽": 3536,
			"精": 3537,
			"糊": 3538,
			"糕": 3539,
			"糖": 3540,
			"糙": 3541,
			"糜": 3542,
			"糞": 3543,
			"糟": 3544,
			"糠": 3545,
			"糧": 3546,
			"糯": 3547,
			"糰": 3548,
			"糸": 3549,
			"系": 3550,
			"糾": 3551,
			"紀": 3552,
			"紂": 3553,
			"約": 3554,
			"紅": 3555,
			"紇": 3556,
			"紉": 3557,
			"紊": 3558,
			"紋": 3559,
			"納": 3560,
			"紐": 3561,
			"紓": 3562,
			"純": 3563,
			"紗": 3564,
			"紙": 3565,
			"級": 3566,
			"紛": 3567,
			"紜": 3568,
			"素": 3569,
			"紡": 3570,
			"索": 3571,
			"紫": 3572,
			"紮": 3573,
			"累": 3574,
			"細": 3575,
			"紳": 3576,
			"紹": 3577,
			"終": 3578,
			"絃": 3579,
			"組": 3580,
			"絆": 3581,
			"結": 3582,
			"絕": 3583,
			"絞": 3584,
			"絡": 3585,
			"絢": 3586,
			"給": 3587,
			"絨": 3588,
			"絮": 3589,
			"統": 3590,
			"絲": 3591,
			"絳": 3592,
			"絹": 3593,
			"綁": 3594,
			"綏": 3595,
			"經": 3596,
			"綜": 3597,
			"綠": 3598,
			"綢": 3599,
			"綦": 3600,
			"綫": 3601,
			"綬": 3602,
			"維": 3603,
			"綱": 3604,
			"網": 3605,
			"綴": 3606,
			"綵": 3607,
			"綸": 3608,
			"綺": 3609,
			"綻": 3610,
			"綽": 3611,
			"綾": 3612,
			"綿": 3613,
			"緊": 3614,
			"緋": 3615,
			"緒": 3616,
			"線": 3617,
			"緝": 3618,
			"緞": 3619,
			"締": 3620,
			"緣": 3621,
			"編": 3622,
			"緩": 3623,
			"緬": 3624,
			"緯": 3625,
			"練": 3626,
			"緹": 3627,
			"緻": 3628,
			"縉": 3629,
			"縊": 3630,
			"縛": 3631,
			"縣": 3632,
			"縫": 3633,
			"縮": 3634,
			"縱": 3635,
			"縷": 3636,
			"縻": 3637,
			"總": 3638,
			"績": 3639,
			"繁": 3640,
			"繃": 3641,
			"繆": 3642,
			"繇": 3643,
			"織": 3644,
			"繕": 3645,
			"繞": 3646,
			"繡": 3647,
			"繩": 3648,
			"繪": 3649,
			"繫": 3650,
			"繭": 3651,
			"繳": 3652,
			"繹": 3653,
			"繼": 3654,
			"纂": 3655,
			"續": 3656,
			"纏": 3657,
			"纓": 3658,
			"纖": 3659,
			"纜": 3660,
			"缸": 3661,
			"缺": 3662,
			"缽": 3663,
			"罄": 3664,
			"罌": 3665,
			"罐": 3666,
			"罔": 3667,
			"罕": 3668,
			"罩": 3669,
			"罪": 3670,
			"置": 3671,
			"罰": 3672,
			"署": 3673,
			"罵": 3674,
			"罷": 3675,
			"罹": 3676,
			"羅": 3677,
			"羈": 3678,
			"羊": 3679,
			"羌": 3680,
			"美": 3681,
			"羔": 3682,
			"羚": 3683,
			"羞": 3684,
			"群": 3685,
			"羥": 3686,
			"羧": 3687,
			"羨": 3688,
			"義": 3689,
			"羯": 3690,
			"羰": 3691,
			"羲": 3692,
			"羹": 3693,
			"羽": 3694,
			"翁": 3695,
			"翅": 3696,
			"翊": 3697,
			"翌": 3698,
			"翎": 3699,
			"習": 3700,
			"翔": 3701,
			"翟": 3702,
			"翠": 3703,
			"翡": 3704,
			"翩": 3705,
			"翰": 3706,
			"翹": 3707,
			"翻": 3708,
			"翼": 3709,
			"耀": 3710,
			"老": 3711,
			"考": 3712,
			"者": 3713,
			"耆": 3714,
			"而": 3715,
			"耍": 3716,
			"耐": 3717,
			"耕": 3718,
			"耗": 3719,
			"耘": 3720,
			"耦": 3721,
			"耳": 3722,
			"耶": 3723,
			"耽": 3724,
			"耿": 3725,
			"聆": 3726,
			"聊": 3727,
			"聖": 3728,
			"聘": 3729,
			"聚": 3730,
			"聞": 3731,
			"聯": 3732,
			"聰": 3733,
			"聲": 3734,
			"聳": 3735,
			"聶": 3736,
			"職": 3737,
			"聽": 3738,
			"聾": 3739,
			"聿": 3740,
			"肄": 3741,
			"肅": 3742,
			"肆": 3743,
			"肇": 3744,
			"肉": 3745,
			"肋": 3746,
			"肌": 3747,
			"肖": 3748,
			"肘": 3749,
			"肚": 3750,
			"肛": 3751,
			"肝": 3752,
			"股": 3753,
			"肢": 3754,
			"肥": 3755,
			"肩": 3756,
			"肪": 3757,
			"肯": 3758,
			"肱": 3759,
			"育": 3760,
			"肺": 3761,
			"肽": 3762,
			"胃": 3763,
			"胄": 3764,
			"背": 3765,
			"胎": 3766,
			"胖": 3767,
			"胚": 3768,
			"胞": 3769,
			"胡": 3770,
			"胤": 3771,
			"胥": 3772,
			"胰": 3773,
			"胱": 3774,
			"胸": 3775,
			"胺": 3776,
			"能": 3777,
			"脂": 3778,
			"脅": 3779,
			"脆": 3780,
			"脇": 3781,
			"脈": 3782,
			"脊": 3783,
			"脖": 3784,
			"脛": 3785,
			"脩": 3786,
			"脫": 3787,
			"脷": 3788,
			"脹": 3789,
			"脾": 3790,
			"腈": 3791,
			"腋": 3792,
			"腎": 3793,
			"腐": 3794,
			"腓": 3795,
			"腔": 3796,
			"腕": 3797,
			"腥": 3798,
			"腦": 3799,
			"腫": 3800,
			"腰": 3801,
			"腱": 3802,
			"腳": 3803,
			"腸": 3804,
			"腹": 3805,
			"腺": 3806,
			"腿": 3807,
			"膀": 3808,
			"膏": 3809,
			"膚": 3810,
			"膛": 3811,
			"膜": 3812,
			"膝": 3813,
			"膠": 3814,
			"膦": 3815,
			"膨": 3816,
			"膩": 3817,
			"膳": 3818,
			"膺": 3819,
			"膽": 3820,
			"膾": 3821,
			"膿": 3822,
			"臀": 3823,
			"臂": 3824,
			"臉": 3825,
			"臍": 3826,
			"臘": 3827,
			"臚": 3828,
			"臟": 3829,
			"臣": 3830,
			"臥": 3831,
			"臧": 3832,
			"臨": 3833,
			"自": 3834,
			"臭": 3835,
			"至": 3836,
			"致": 3837,
			"臺": 3838,
			"臻": 3839,
			"臼": 3840,
			"舅": 3841,
			"與": 3842,
			"興": 3843,
			"舉": 3844,
			"舊": 3845,
			"舌": 3846,
			"舍": 3847,
			"舒": 3848,
			"舖": 3849,
			"舜": 3850,
			"舞": 3851,
			"舟": 3852,
			"航": 3853,
			"舫": 3854,
			"般": 3855,
			"舵": 3856,
			"舶": 3857,
			"舷": 3858,
			"船": 3859,
			"舺": 3860,
			"艇": 3861,
			"艉": 3862,
			"艋": 3863,
			"艏": 3864,
			"艘": 3865,
			"艙": 3866,
			"艦": 3867,
			"艮": 3868,
			"良": 3869,
			"艱": 3870,
			"色": 3871,
			"艷": 3872,
			"艾": 3873,
			"芋": 3874,
			"芎": 3875,
			"芒": 3876,
			"芙": 3877,
			"芝": 3878,
			"芥": 3879,
			"芬": 3880,
			"芭": 3881,
			"芮": 3882,
			"芯": 3883,
			"花": 3884,
			"芳": 3885,
			"芷": 3886,
			"芸": 3887,
			"芹": 3888,
			"芽": 3889,
			"苄": 3890,
			"苑": 3891,
			"苓": 3892,
			"苔": 3893,
			"苗": 3894,
			"苛": 3895,
			"苞": 3896,
			"苟": 3897,
			"苣": 3898,
			"若": 3899,
			"苦": 3900,
			"苯": 3901,
			"英": 3902,
			"苳": 3903,
			"苷": 3904,
			"苻": 3905,
			"茂": 3906,
			"范": 3907,
			"茄": 3908,
			"茅": 3909,
			"茉": 3910,
			"茗": 3911,
			"茛": 3912,
			"茜": 3913,
			"茨": 3914,
			"茫": 3915,
			"茱": 3916,
			"茲": 3917,
			"茵": 3918,
			"茶": 3919,
			"茸": 3920,
			"茹": 3921,
			"荀": 3922,
			"荃": 3923,
			"草": 3924,
			"荊": 3925,
			"荒": 3926,
			"荔": 3927,
			"荷": 3928,
			"荻": 3929,
			"荼": 3930,
			"莆": 3931,
			"莉": 3932,
			"莊": 3933,
			"莎": 3934,
			"莒": 3935,
			"莓": 3936,
			"莖": 3937,
			"莘": 3938,
			"莞": 3939,
			"莢": 3940,
			"莧": 3941,
			"莪": 3942,
			"莫": 3943,
			"莽": 3944,
			"菀": 3945,
			"菁": 3946,
			"菅": 3947,
			"菇": 3948,
			"菈": 3949,
			"菊": 3950,
			"菌": 3951,
			"菏": 3952,
			"菓": 3953,
			"菜": 3954,
			"菠": 3955,
			"菩": 3956,
			"華": 3957,
			"菱": 3958,
			"菲": 3959,
			"菴": 3960,
			"菸": 3961,
			"萃": 3962,
			"萄": 3963,
			"萊": 3964,
			"萌": 3965,
			"萍": 3966,
			"萎": 3967,
			"萘": 3968,
			"萩": 3969,
			"萬": 3970,
			"萱": 3971,
			"萼": 3972,
			"落": 3973,
			"葆": 3974,
			"葉": 3975,
			"著": 3976,
			"葛": 3977,
			"葡": 3978,
			"董": 3979,
			"葦": 3980,
			"葫": 3981,
			"葬": 3982,
			"葵": 3983,
			"葺": 3984,
			"蒂": 3985,
			"蒐": 3986,
			"蒙": 3987,
			"蒜": 3988,
			"蒞": 3989,
			"蒯": 3990,
			"蒲": 3991,
			"蒴": 3992,
			"蒸": 3993,
			"蒼": 3994,
			"蒿": 3995,
			"蓀": 3996,
			"蓄": 3997,
			"蓉": 3998,
			"蓋": 3999,
			"蓓": 4000,
			"蓬": 4001,
			"蓮": 4002,
			"蓼": 4003,
			"蔑": 4004,
			"蔓": 4005,
			"蔔": 4006,
			"蔗": 4007,
			"蔚": 4008,
			"蔡": 4009,
			"蔣": 4010,
			"蔥": 4011,
			"蔬": 4012,
			"蔭": 4013,
			"蔻": 4014,
			"蔽": 4015,
			"蕁": 4016,
			"蕃": 4017,
			"蕈": 4018,
			"蕉": 4019,
			"蕊": 4020,
			"蕙": 4021,
			"蕨": 4022,
			"蕩": 4023,
			"蕪": 4024,
			"蕭": 4025,
			"蕾": 4026,
			"薄": 4027,
			"薇": 4028,
			"薈": 4029,
			"薊": 4030,
			"薑": 4031,
			"薔": 4032,
			"薙": 4033,
			"薛": 4034,
			"薦": 4035,
			"薨": 4036,
			"薩": 4037,
			"薪": 4038,
			"薯": 4039,
			"薰": 4040,
			"薹": 4041,
			"薺": 4042,
			"藉": 4043,
			"藍": 4044,
			"藏": 4045,
			"藔": 4046,
			"藜": 4047,
			"藝": 4048,
			"藤": 4049,
			"藥": 4050,
			"藩": 4051,
			"藹": 4052,
			"藺": 4053,
			"藻": 4054,
			"蘄": 4055,
			"蘆": 4056,
			"蘇": 4057,
			"蘊": 4058,
			"蘋": 4059,
			"蘑": 4060,
			"蘚": 4061,
			"蘭": 4062,
			"蘿": 4063,
			"虎": 4064,
			"虐": 4065,
			"虔": 4066,
			"處": 4067,
			"虛": 4068,
			"虜": 4069,
			"虞": 4070,
			"號": 4071,
			"虢": 4072,
			"虧": 4073,
			"虹": 4074,
			"蚊": 4075,
			"蚌": 4076,
			"蚓": 4077,
			"蚜": 4078,
			"蚣": 4079,
			"蚤": 4080,
			"蛇": 4081,
			"蛋": 4082,
			"蛙": 4083,
			"蛛": 4084,
			"蛟": 4085,
			"蛤": 4086,
			"蛭": 4087,
			"蛹": 4088,
			"蛺": 4089,
			"蛻": 4090,
			"蛾": 4091,
			"蜀": 4092,
			"蜂": 4093,
			"蜆": 4094,
			"蜈": 4095,
			"蜍": 4096,
			"蜒": 4097,
			"蜓": 4098,
			"蜘": 4099,
			"蜜": 4100,
			"蜥": 4101,
			"蜱": 4102,
			"蜴": 4103,
			"蜻": 4104,
			"蜿": 4105,
			"蝕": 4106,
			"蝗": 4107,
			"蝙": 4108,
			"蝟": 4109,
			"蝠": 4110,
			"蝦": 4111,
			"蝨": 4112,
			"蝮": 4113,
			"蝰": 4114,
			"蝴": 4115,
			"蝶": 4116,
			"蝸": 4117,
			"蝽": 4118,
			"螂": 4119,
			"螃": 4120,
			"螈": 4121,
			"融": 4122,
			"螞": 4123,
			"螢": 4124,
			"螯": 4125,
			"螳": 4126,
			"螺": 4127,
			"蟎": 4128,
			"蟑": 4129,
			"蟒": 4130,
			"蟠": 4131,
			"蟬": 4132,
			"蟲": 4133,
			"蟹": 4134,
			"蟻": 4135,
			"蟾": 4136,
			"蠅": 4137,
			"蠍": 4138,
			"蠔": 4139,
			"蠕": 4140,
			"蠟": 4141,
			"蠡": 4142,
			"蠢": 4143,
			"蠣": 4144,
			"蠱": 4145,
			"蠶": 4146,
			"蠻": 4147,
			"血": 4148,
			"衊": 4149,
			"行": 4150,
			"衍": 4151,
			"術": 4152,
			"衕": 4153,
			"街": 4154,
			"衙": 4155,
			"衚": 4156,
			"衛": 4157,
			"衝": 4158,
			"衞": 4159,
			"衡": 4160,
			"衢": 4161,
			"衣": 4162,
			"表": 4163,
			"衫": 4164,
			"衰": 4165,
			"衷": 4166,
			"袁": 4167,
			"袋": 4168,
			"袍": 4169,
			"袒": 4170,
			"袖": 4171,
			"袞": 4172,
			"被": 4173,
			"裁": 4174,
			"裂": 4175,
			"裔": 4176,
			"裕": 4177,
			"裘": 4178,
			"裙": 4179,
			"補": 4180,
			"裝": 4181,
			"裡": 4182,
			"裨": 4183,
			"裳": 4184,
			"裴": 4185,
			"裸": 4186,
			"裹": 4187,
			"製": 4188,
			"複": 4189,
			"褐": 4190,
			"褒": 4191,
			"褚": 4192,
			"褪": 4193,
			"褫": 4194,
			"褲": 4195,
			"褶": 4196,
			"褻": 4197,
			"襄": 4198,
			"襟": 4199,
			"襪": 4200,
			"襯": 4201,
			"襲": 4202,
			"西": 4203,
			"要": 4204,
			"覃": 4205,
			"覆": 4206,
			"見": 4207,
			"規": 4208,
			"覓": 4209,
			"視": 4210,
			"覦": 4211,
			"親": 4212,
			"覬": 4213,
			"覲": 4214,
			"覺": 4215,
			"覽": 4216,
			"觀": 4217,
			"角": 4218,
			"解": 4219,
			"觸": 4220,
			"言": 4221,
			"訂": 4222,
			"訃": 4223,
			"計": 4224,
			"訊": 4225,
			"討": 4226,
			"訓": 4227,
			"訖": 4228,
			"託": 4229,
			"記": 4230,
			"訛": 4231,
			"訝": 4232,
			"訟": 4233,
			"訣": 4234,
			"訥": 4235,
			"訪": 4236,
			"設": 4237,
			"許": 4238,
			"訴": 4239,
			"訶": 4240,
			"診": 4241,
			"註": 4242,
			"証": 4243,
			"詆": 4244,
			"詐": 4245,
			"詔": 4246,
			"評": 4247,
			"詛": 4248,
			"詞": 4249,
			"詠": 4250,
			"詡": 4251,
			"詢": 4252,
			"詣": 4253,
			"試": 4254,
			"詩": 4255,
			"詬": 4256,
			"詭": 4257,
			"詮": 4258,
			"詰": 4259,
			"話": 4260,
			"該": 4261,
			"詳": 4262,
			"詹": 4263,
			"誅": 4264,
			"誇": 4265,
			"誌": 4266,
			"認": 4267,
			"誓": 4268,
			"誕": 4269,
			"誘": 4270,
			"語": 4271,
			"誠": 4272,
			"誡": 4273,
			"誣": 4274,
			"誤": 4275,
			"誥": 4276,
			"誦": 4277,
			"誨": 4278,
			"說": 4279,
			"説": 4280,
			"誰": 4281,
			"課": 4282,
			"誹": 4283,
			"誼": 4284,
			"調": 4285,
			"談": 4286,
			"請": 4287,
			"諏": 4288,
			"諒": 4289,
			"論": 4290,
			"諜": 4291,
			"諡": 4292,
			"諤": 4293,
			"諦": 4294,
			"諧": 4295,
			"諫": 4296,
			"諭": 4297,
			"諮": 4298,
			"諱": 4299,
			"諶": 4300,
			"諷": 4301,
			"諸": 4302,
			"諺": 4303,
			"諾": 4304,
			"謀": 4305,
			"謁": 4306,
			"謂": 4307,
			"謊": 4308,
			"謎": 4309,
			"謔": 4310,
			"謗": 4311,
			"謙": 4312,
			"謚": 4313,
			"講": 4314,
			"謝": 4315,
			"謠": 4316,
			"謨": 4317,
			"謫": 4318,
			"謬": 4319,
			"謹": 4320,
			"譁": 4321,
			"證": 4322,
			"譏": 4323,
			"識": 4324,
			"譙": 4325,
			"譚": 4326,
			"譜": 4327,
			"警": 4328,
			"譬": 4329,
			"譯": 4330,
			"議": 4331,
			"譴": 4332,
			"護": 4333,
			"譽": 4334,
			"讀": 4335,
			"變": 4336,
			"讒": 4337,
			"讓": 4338,
			"讚": 4339,
			"讞": 4340,
			"谷": 4341,
			"谿": 4342,
			"豁": 4343,
			"豆": 4344,
			"豈": 4345,
			"豌": 4346,
			"豎": 4347,
			"豐": 4348,
			"豔": 4349,
			"豚": 4350,
			"象": 4351,
			"豪": 4352,
			"豫": 4353,
			"豬": 4354,
			"豹": 4355,
			"貂": 4356,
			"貌": 4357,
			"貓": 4358,
			"貝": 4359,
			"貞": 4360,
			"負": 4361,
			"財": 4362,
			"貢": 4363,
			"貧": 4364,
			"貨": 4365,
			"販": 4366,
			"貪": 4367,
			"貫": 4368,
			"責": 4369,
			"貯": 4370,
			"貳": 4371,
			"貴": 4372,
			"貶": 4373,
			"買": 4374,
			"貸": 4375,
			"費": 4376,
			"貼": 4377,
			"貽": 4378,
			"貿": 4379,
			"賀": 4380,
			"賁": 4381,
			"賂": 4382,
			"賃": 4383,
			"賄": 4384,
			"資": 4385,
			"賈": 4386,
			"賊": 4387,
			"賑": 4388,
			"賓": 4389,
			"賚": 4390,
			"賜": 4391,
			"賞": 4392,
			"賠": 4393,
			"賡": 4394,
			"賢": 4395,
			"賣": 4396,
			"賤": 4397,
			"賦": 4398,
			"質": 4399,
			"賬": 4400,
			"賭": 4401,
			"賴": 4402,
			"賺": 4403,
			"購": 4404,
			"賽": 4405,
			"贅": 4406,
			"贈": 4407,
			"贊": 4408,
			"贍": 4409,
			"贏": 4410,
			"贓": 4411,
			"贖": 4412,
			"贛": 4413,
			"赤": 4414,
			"赦": 4415,
			"赫": 4416,
			"走": 4417,
			"赴": 4418,
			"起": 4419,
			"趁": 4420,
			"超": 4421,
			"越": 4422,
			"趕": 4423,
			"趙": 4424,
			"趟": 4425,
			"趣": 4426,
			"趨": 4427,
			"足": 4428,
			"趴": 4429,
			"趾": 4430,
			"跆": 4431,
			"跋": 4432,
			"跌": 4433,
			"跑": 4434,
			"跗": 4435,
			"距": 4436,
			"跟": 4437,
			"跡": 4438,
			"跤": 4439,
			"跨": 4440,
			"跪": 4441,
			"路": 4442,
			"跳": 4443,
			"踏": 4444,
			"踐": 4445,
			"踝": 4446,
			"踞": 4447,
			"踢": 4448,
			"踩": 4449,
			"踴": 4450,
			"蹄": 4451,
			"蹈": 4452,
			"蹟": 4453,
			"蹠": 4454,
			"蹤": 4455,
			"蹦": 4456,
			"蹲": 4457,
			"躁": 4458,
			"躋": 4459,
			"躍": 4460,
			"身": 4461,
			"躬": 4462,
			"躲": 4463,
			"躺": 4464,
			"軀": 4465,
			"車": 4466,
			"軋": 4467,
			"軌": 4468,
			"軍": 4469,
			"軒": 4470,
			"軛": 4471,
			"軟": 4472,
			"軫": 4473,
			"軸": 4474,
			"軼": 4475,
			"軾": 4476,
			"較": 4477,
			"載": 4478,
			"輒": 4479,
			"輓": 4480,
			"輔": 4481,
			"輕": 4482,
			"輛": 4483,
			"輜": 4484,
			"輝": 4485,
			"輟": 4486,
			"輩": 4487,
			"輪": 4488,
			"輯": 4489,
			"輸": 4490,
			"輻": 4491,
			"輾": 4492,
			"輿": 4493,
			"轄": 4494,
			"轅": 4495,
			"轉": 4496,
			"轍": 4497,
			"轎": 4498,
			"轟": 4499,
			"辛": 4500,
			"辜": 4501,
			"辟": 4502,
			"辣": 4503,
			"辦": 4504,
			"辨": 4505,
			"辭": 4506,
			"辮": 4507,
			"辯": 4508,
			"辰": 4509,
			"辱": 4510,
			"農": 4511,
			"辻": 4512,
			"迂": 4513,
			"迄": 4514,
			"迅": 4515,
			"迎": 4516,
			"近": 4517,
			"返": 4518,
			"迥": 4519,
			"迦": 4520,
			"迪": 4521,
			"迫": 4522,
			"迭": 4523,
			"述": 4524,
			"迴": 4525,
			"迷": 4526,
			"迺": 4527,
			"追": 4528,
			"退": 4529,
			"送": 4530,
			"逃": 4531,
			"逅": 4532,
			"逆": 4533,
			"逍": 4534,
			"透": 4535,
			"逐": 4536,
			"途": 4537,
			"逕": 4538,
			"逗": 4539,
			"這": 4540,
			"通": 4541,
			"逛": 4542,
			"逝": 4543,
			"逞": 4544,
			"速": 4545,
			"造": 4546,
			"逢": 4547,
			"連": 4548,
			"逮": 4549,
			"週": 4550,
			"進": 4551,
			"逵": 4552,
			"逸": 4553,
			"逼": 4554,
			"逾": 4555,
			"遁": 4556,
			"遂": 4557,
			"遇": 4558,
			"遊": 4559,
			"運": 4560,
			"遍": 4561,
			"過": 4562,
			"遏": 4563,
			"遐": 4564,
			"道": 4565,
			"達": 4566,
			"違": 4567,
			"遙": 4568,
			"遜": 4569,
			"遞": 4570,
			"遠": 4571,
			"遣": 4572,
			"適": 4573,
			"遭": 4574,
			"遮": 4575,
			"遲": 4576,
			"遴": 4577,
			"遵": 4578,
			"遶": 4579,
			"遷": 4580,
			"選": 4581,
			"遺": 4582,
			"遼": 4583,
			"遽": 4584,
			"避": 4585,
			"邀": 4586,
			"邁": 4587,
			"邂": 4588,
			"邃": 4589,
			"還": 4590,
			"邇": 4591,
			"邈": 4592,
			"邊": 4593,
			"邏": 4594,
			"邑": 4595,
			"邕": 4596,
			"邢": 4597,
			"那": 4598,
			"邦": 4599,
			"邨": 4600,
			"邪": 4601,
			"邯": 4602,
			"邱": 4603,
			"邳": 4604,
			"邵": 4605,
			"邸": 4606,
			"郁": 4607,
			"郊": 4608,
			"郎": 4609,
			"郝": 4610,
			"郡": 4611,
			"郢": 4612,
			"部": 4613,
			"郭": 4614,
			"郴": 4615,
			"郵": 4616,
			"都": 4617,
			"鄂": 4618,
			"鄉": 4619,
			"鄒": 4620,
			"鄔": 4621,
			"鄖": 4622,
			"鄙": 4623,
			"鄞": 4624,
			"鄢": 4625,
			"鄧": 4626,
			"鄭": 4627,
			"鄰": 4628,
			"鄱": 4629,
			"鄲": 4630,
			"鄴": 4631,
			"鄺": 4632,
			"酈": 4633,
			"酉": 4634,
			"酋": 4635,
			"酌": 4636,
			"配": 4637,
			"酐": 4638,
			"酒": 4639,
			"酗": 4640,
			"酚": 4641,
			"酥": 4642,
			"酪": 4643,
			"酬": 4644,
			"酮": 4645,
			"酯": 4646,
			"酵": 4647,
			"酶": 4648,
			"酷": 4649,
			"酸": 4650,
			"醃": 4651,
			"醇": 4652,
			"醉": 4653,
			"醋": 4654,
			"醍": 4655,
			"醒": 4656,
			"醚": 4657,
			"醛": 4658,
			"醜": 4659,
			"醞": 4660,
			"醣": 4661,
			"醫": 4662,
			"醬": 4663,
			"醮": 4664,
			"醯": 4665,
			"醴": 4666,
			"釀": 4667,
			"釁": 4668,
			"采": 4669,
			"釉": 4670,
			"釋": 4671,
			"里": 4672,
			"重": 4673,
			"野": 4674,
			"量": 4675,
			"釐": 4676,
			"金": 4677,
			"釗": 4678,
			"釘": 4679,
			"釜": 4680,
			"針": 4681,
			"釣": 4682,
			"釧": 4683,
			"釩": 4684,
			"釵": 4685,
			"釷": 4686,
			"鈀": 4687,
			"鈉": 4688,
			"鈍": 4689,
			"鈎": 4690,
			"鈔": 4691,
			"鈕": 4692,
			"鈞": 4693,
			"鈣": 4694,
			"鈦": 4695,
			"鈴": 4696,
			"鈷": 4697,
			"鈸": 4698,
			"鈹": 4699,
			"鈺": 4700,
			"鈽": 4701,
			"鈾": 4702,
			"鉀": 4703,
			"鉅": 4704,
			"鉈": 4705,
			"鉉": 4706,
			"鉍": 4707,
			"鉑": 4708,
			"鉗": 4709,
			"鉛": 4710,
			"鉞": 4711,
			"鉤": 4712,
			"鉬": 4713,
			"鉸": 4714,
			"鉻": 4715,
			"銀": 4716,
			"銃": 4717,
			"銅": 4718,
			"銑": 4719,
			"銓": 4720,
			"銖": 4721,
			"銘": 4722,
			"銜": 4723,
			"銨": 4724,
			"銫": 4725,
			"銬": 4726,
			"銳": 4727,
			"銷": 4728,
			"銻": 4729,
			"鋁": 4730,
			"鋅": 4731,
			"鋇": 4732,
			"鋒": 4733,
			"鋤": 4734,
			"鋪": 4735,
			"鋯": 4736,
			"鋰": 4737,
			"鋸": 4738,
			"鋼": 4739,
			"錄": 4740,
			"錐": 4741,
			"錕": 4742,
			"錘": 4743,
			"錚": 4744,
			"錠": 4745,
			"錡": 4746,
			"錢": 4747,
			"錦": 4748,
			"錨": 4749,
			"錫": 4750,
			"錮": 4751,
			"錯": 4752,
			"錳": 4753,
			"錶": 4754,
			"鍊": 4755,
			"鍋": 4756,
			"鍍": 4757,
			"鍔": 4758,
			"鍛": 4759,
			"鍵": 4760,
			"鍶": 4761,
			"鍺": 4762,
			"鍾": 4763,
			"鎂": 4764,
			"鎊": 4765,
			"鎌": 4766,
			"鎔": 4767,
			"鎖": 4768,
			"鎘": 4769,
			"鎚": 4770,
			"鎢": 4771,
			"鎧": 4772,
			"鎬": 4773,
			"鎮": 4774,
			"鎳": 4775,
			"鎵": 4776,
			"鏈": 4777,
			"鏗": 4778,
			"鏘": 4779,
			"鏞": 4780,
			"鏟": 4781,
			"鏡": 4782,
			"鏢": 4783,
			"鏽": 4784,
			"鐘": 4785,
			"鐫": 4786,
			"鐮": 4787,
			"鐳": 4788,
			"鐵": 4789,
			"鐸": 4790,
			"鑄": 4791,
			"鑑": 4792,
			"鑒": 4793,
			"鑣": 4794,
			"鑫": 4795,
			"鑭": 4796,
			"鑰": 4797,
			"鑲": 4798,
			"鑼": 4799,
			"鑽": 4800,
			"鑾": 4801,
			"鑿": 4802,
			"長": 4803,
			"門": 4804,
			"閃": 4805,
			"閆": 4806,
			"閉": 4807,
			"開": 4808,
			"閏": 4809,
			"閑": 4810,
			"閒": 4811,
			"間": 4812,
			"閔": 4813,
			"閘": 4814,
			"閡": 4815,
			"閣": 4816,
			"閤": 4817,
			"閥": 4818,
			"閨": 4819,
			"閩": 4820,
			"閭": 4821,
			"閱": 4822,
			"閲": 4823,
			"閹": 4824,
			"閻": 4825,
			"閾": 4826,
			"闆": 4827,
			"闇": 4828,
			"闊": 4829,
			"闌": 4830,
			"闍": 4831,
			"闐": 4832,
			"闔": 4833,
			"闕": 4834,
			"闖": 4835,
			"關": 4836,
			"闡": 4837,
			"闢": 4838,
			"阜": 4839,
			"阡": 4840,
			"阪": 4841,
			"阮": 4842,
			"阱": 4843,
			"防": 4844,
			"阻": 4845,
			"阿": 4846,
			"陀": 4847,
			"陂": 4848,
			"附": 4849,
			"陋": 4850,
			"陌": 4851,
			"降": 4852,
			"限": 4853,
			"陛": 4854,
			"陝": 4855,
			"陞": 4856,
			"陡": 4857,
			"院": 4858,
			"陣": 4859,
			"除": 4860,
			"陪": 4861,
			"陰": 4862,
			"陳": 4863,
			"陵": 4864,
			"陶": 4865,
			"陷": 4866,
			"陸": 4867,
			"陽": 4868,
			"隅": 4869,
			"隆": 4870,
			"隈": 4871,
			"隊": 4872,
			"隋": 4873,
			"隍": 4874,
			"階": 4875,
			"隔": 4876,
			"隕": 4877,
			"隘": 4878,
			"隙": 4879,
			"際": 4880,
			"障": 4881,
			"隧": 4882,
			"隨": 4883,
			"險": 4884,
			"隱": 4885,
			"隴": 4886,
			"隸": 4887,
			"隻": 4888,
			"隼": 4889,
			"雀": 4890,
			"雁": 4891,
			"雄": 4892,
			"雅": 4893,
			"集": 4894,
			"雉": 4895,
			"雋": 4896,
			"雌": 4897,
			"雍": 4898,
			"雒": 4899,
			"雕": 4900,
			"雖": 4901,
			"雙": 4902,
			"雛": 4903,
			"雜": 4904,
			"雞": 4905,
			"離": 4906,
			"難": 4907,
			"雨": 4908,
			"雪": 4909,
			"雫": 4910,
			"雯": 4911,
			"雲": 4912,
			"零": 4913,
			"雷": 4914,
			"電": 4915,
			"需": 4916,
			"霄": 4917,
			"霆": 4918,
			"震": 4919,
			"霍": 4920,
			"霑": 4921,
			"霓": 4922,
			"霖": 4923,
			"霜": 4924,
			"霞": 4925,
			"霧": 4926,
			"霰": 4927,
			"露": 4928,
			"霸": 4929,
			"霹": 4930,
			"霽": 4931,
			"霾": 4932,
			"靂": 4933,
			"靈": 4934,
			"青": 4935,
			"靖": 4936,
			"靚": 4937,
			"靛": 4938,
			"靜": 4939,
			"非": 4940,
			"靠": 4941,
			"靡": 4942,
			"面": 4943,
			"革": 4944,
			"靳": 4945,
			"靴": 4946,
			"靶": 4947,
			"靼": 4948,
			"鞅": 4949,
			"鞋": 4950,
			"鞍": 4951,
			"鞏": 4952,
			"鞘": 4953,
			"鞠": 4954,
			"鞭": 4955,
			"韃": 4956,
			"韋": 4957,
			"韌": 4958,
			"韓": 4959,
			"韜": 4960,
			"音": 4961,
			"韶": 4962,
			"韻": 4963,
			"響": 4964,
			"頁": 4965,
			"頂": 4966,
			"頃": 4967,
			"項": 4968,
			"順": 4969,
			"須": 4970,
			"頌": 4971,
			"預": 4972,
			"頑": 4973,
			"頒": 4974,
			"頓": 4975,
			"頗": 4976,
			"領": 4977,
			"頜": 4978,
			"頡": 4979,
			"頤": 4980,
			"頭": 4981,
			"頰": 4982,
			"頷": 4983,
			"頸": 4984,
			"頹": 4985,
			"頻": 4986,
			"顆": 4987,
			"題": 4988,
			"額": 4989,
			"顎": 4990,
			"顏": 4991,
			"顒": 4992,
			"願": 4993,
			"顛": 4994,
			"類": 4995,
			"顥": 4996,
			"顧": 4997,
			"顫": 4998,
			"顯": 4999,
			"顱": 5000,
			"顳": 5001,
			"風": 5002,
			"颯": 5003,
			"颱": 5004,
			"颶": 5005,
			"飄": 5006,
			"飆": 5007,
			"飛": 5008,
			"食": 5009,
			"飢": 5010,
			"飪": 5011,
			"飭": 5012,
			"飯": 5013,
			"飲": 5014,
			"飼": 5015,
			"飽": 5016,
			"飾": 5017,
			"餃": 5018,
			"餅": 5019,
			"餉": 5020,
			"養": 5021,
			"餌": 5022,
			"餐": 5023,
			"餓": 5024,
			"餘": 5025,
			"餚": 5026,
			"餡": 5027,
			"館": 5028,
			"餵": 5029,
			"餾": 5030,
			"饅": 5031,
			"饋": 5032,
			"饑": 5033,
			"饒": 5034,
			"首": 5035,
			"香": 5036,
			"馥": 5037,
			"馨": 5038,
			"馬": 5039,
			"馭": 5040,
			"馮": 5041,
			"馱": 5042,
			"馳": 5043,
			"馴": 5044,
			"駁": 5045,
			"駐": 5046,
			"駒": 5047,
			"駕": 5048,
			"駙": 5049,
			"駛": 5050,
			"駝": 5051,
			"駟": 5052,
			"駢": 5053,
			"駭": 5054,
			"駱": 5055,
			"駿": 5056,
			"騎": 5057,
			"騙": 5058,
			"騫": 5059,
			"騰": 5060,
			"騷": 5061,
			"騾": 5062,
			"驃": 5063,
			"驅": 5064,
			"驊": 5065,
			"驍": 5066,
			"驕": 5067,
			"驗": 5068,
			"驚": 5069,
			"驛": 5070,
			"驟": 5071,
			"驢": 5072,
			"驤": 5073,
			"驥": 5074,
			"驪": 5075,
			"骨": 5076,
			"骯": 5077,
			"骰": 5078,
			"骷": 5079,
			"骸": 5080,
			"骼": 5081,
			"髏": 5082,
			"髒": 5083,
			"髓": 5084,
			"體": 5085,
			"高": 5086,
			"髦": 5087,
			"髮": 5088,
			"髻": 5089,
			"鬃": 5090,
			"鬆": 5091,
			"鬍": 5092,
			"鬚": 5093,
			"鬣": 5094,
			"鬥": 5095,
			"鬧": 5096,
			"鬱": 5097,
			"鬼": 5098,
			"魁": 5099,
			"魂": 5100,
			"魄": 5101,
			"魅": 5102,
			"魏": 5103,
			"魔": 5104,
			"魚": 5105,
			"魟": 5106,
			"魨": 5107,
			"魮": 5108,
			"魯": 5109,
			"魷": 5110,
			"鮃": 5111,
			"鮋": 5112,
			"鮑": 5113,
			"鮟": 5114,
			"鮨": 5115,
			"鮫": 5116,
			"鮭": 5117,
			"鮮": 5118,
			"鯉": 5119,
			"鯊": 5120,
			"鯖": 5121,
			"鯛": 5122,
			"鯡": 5123,
			"鯤": 5124,
			"鯨": 5125,
			"鯰": 5126,
			"鯽": 5127,
			"鰂": 5128,
			"鰈": 5129,
			"鰍": 5130,
			"鰓": 5131,
			"鰕": 5132,
			"鰨": 5133,
			"鰩": 5134,
			"鰭": 5135,
			"鰲": 5136,
			"鰺": 5137,
			"鰻": 5138,
			"鱂": 5139,
			"鱇": 5140,
			"鱈": 5141,
			"鱉": 5142,
			"鱒": 5143,
			"鱗": 5144,
			"鱧": 5145,
			"鱨": 5146,
			"鱲": 5147,
			"鱷": 5148,
			"鱸": 5149,
			"鱺": 5150,
			"鳥": 5151,
			"鳩": 5152,
			"鳳": 5153,
			"鳴": 5154,
			"鳶": 5155,
			"鴉": 5156,
			"鴕": 5157,
			"鴛": 5158,
			"鴞": 5159,
			"鴦": 5160,
			"鴨": 5161,
			"鴻": 5162,
			"鴿": 5163,
			"鵑": 5164,
			"鵜": 5165,
			"鵝": 5166,
			"鵡": 5167,
			"鵬": 5168,
			"鵰": 5169,
			"鵲": 5170,
			"鶇": 5171,
			"鶘": 5172,
			"鶥": 5173,
			"鶯": 5174,
			"鶲": 5175,
			"鶴": 5176,
			"鶻": 5177,
			"鷗": 5178,
			"鷲": 5179,
			"鷸": 5180,
			"鷹": 5181,
			"鷺": 5182,
			"鸚": 5183,
			"鸛": 5184,
			"鸞": 5185,
			"鹵": 5186,
			"鹹": 5187,
			"鹼": 5188,
			"鹽": 5189,
			"鹿": 5190,
			"麒": 5191,
			"麓": 5192,
			"麗": 5193,
			"麝": 5194,
			"麟": 5195,
			"麥": 5196,
			"麴": 5197,
			"麵": 5198,
			"麻": 5199,
			"麼": 5200,
			"麾": 5201,
			"黃": 5202,
			"黍": 5203,
			"黎": 5204,
			"黏": 5205,
			"黑": 5206,
			"黒": 5207,
			"黔": 5208,
			"默": 5209,
			"黛": 5210,
			"黜": 5211,
			"點": 5212,
			"黨": 5213,
			"黯": 5214,
			"黴": 5215,
			"鼎": 5216,
			"鼐": 5217,
			"鼓": 5218,
			"鼠": 5219,
			"鼩": 5220,
			"鼬": 5221,
			"鼻": 5222,
			"齊": 5223,
			"齋": 5224,
			"齒": 5225,
			"齡": 5226,
			"齣": 5227,
			"齦": 5228,
			"齧": 5229,
			"龍": 5230,
			"龐": 5231,
			"龔": 5232,
			"龕": 5233,
			"龜": 5234,
			"︰": 5235,
			"﹐": 5236,
			"﹑": 5237,
			"﹕": 5238,
			"！": 5239,
			"＂": 5240,
			"％": 5241,
			"＆": 5242,
			"（": 5243,
			"）": 5244,
			"＋": 5245,
			"，": 5246,
			"－": 5247,
			"．": 5248,
			"／": 5249,
			"１": 5250,
			"２": 5251,
			"：": 5252,
			"；": 5253,
			"＝": 5254,
			"？": 5255,
			"［": 5256,
			"］": 5257,
			"～": 5258,
			"｢": 5259,
			"｣": 5260,
			"一個": 5261,
			"中國": 5262,
			"位於": 5263,
			"美國": 5264,
			"人口": 5265,
			"使用": 5266,
			"大學": 5267,
			"政府": 5268,
			"公司": 5269,
			"可以": 5270,
			"成為": 5271,
			"開始": 5272,
			"國家": 5273,
			"地區": 5274,
			"公里": 5275,
			"香港": 5276,
			"包括": 5277,
			"第一": 5278,
			"進行": 5279,
			"以及": 5280,
			"其中": 5281,
			"臺灣": 5282,
			"平方": 5283,
			"人民": 5284,
			"世界": 5285,
			"研究": 5286,
			"日本": 5287,
			"沒有": 5288,
			"面積": 5289,
			"主要": 5290,
			"部分": 5291,
			"獲得": 5292,
			"他們": 5293,
			"行政": 5294,
			"委員": 5295,
			"運動": 5296,
			"代表": 5297,
			"政治": 5298,
			"認為": 5299,
			"由於": 5300,
			"法國": 5301,
			"第二": 5302,
			"歷史": 5303,
			"因為": 5304,
			"透過": 5305,
			"工作": 5306,
			"因此": 5307,
			"自己": 5308,
			"其他": 5309,
			"之後": 5310,
			"電影": 5311,
			"中華": 5312,
			"同時": 5313,
			"擔任": 5314,
			"國際": 5315,
			"作為": 5316,
			"中心": 5317,
			"車站": 5318,
			"系統": 5319,
			"之一": 5320,
			"電視": 5321,
			"發展": 5322,
			"中的": 5323,
			"平方公里": 5324,
			"共和": 5325,
			"參加": 5326,
			"可能": 5327,
			"英國": 5328,
			"設計": 5329,
			"當時": 5330,
			"發現": 5331,
			"表示": 5332,
			"遊戲": 5333,
			"市鎮": 5334,
			"建築": 5335,
			"社會": 5336,
			"不同": 5337,
			"比賽": 5338,
			"一種": 5339,
			"時間": 5340,
			"根據": 5341,
			"成立": 5342,
			"中央": 5343,
			"組織": 5344,
			"影響": 5345,
			"共和國": 5346,
			"音樂": 5347,
			"期間": 5348,
			"委員會": 5349,
			"鐵路": 5350,
			"文化": 5351,
			"最後": 5352,
			"這些": 5353,
			"負責": 5354,
			"主義": 5355,
			"學院": 5356,
			"作品": 5357,
			"所有": 5358,
			"經濟": 5359,
			"管理": 5360,
			"活動": 5361,
			"出現": 5362,
			"正式": 5363,
			"這個": 5364,
			"後來": 5365,
			"提供": 5366,
			"世紀": 5367,
			"年代": 5368,
			"也是": 5369,
			"發生": 5370,
			"單位": 5371,
			"一些": 5372,
			"全國": 5373,
			"以下": 5374,
			"利亞": 5375,
			"屬於": 5376,
			"學校": 5377,
			"問題": 5378,
			"時期": 5379,
			"成員": 5380,
			"支援": 5381,
			"之間": 5382,
			"德國": 5383,
			"最終": 5384,
			"許多": 5385,
			"資料": 5386,
			"教育": 5387,
			"生活": 5388,
			"城市": 5389,
			"羅斯": 5390,
			"已經": 5391,
			"人物": 5392,
			"關係": 5393,
			"進入": 5394,
			"北京": 5395,
			"戰爭": 5396,
			"製作": 5397,
			"服務": 5398,
			"工程": 5399,
			"目前": 5400,
			"建立": 5401,
			"發行": 5402,
			"宣佈": 5403,
			"參與": 5404,
			"相關": 5405,
			"足球": 5406,
			"北部": 5407,
			"保護": 5408,
			"節目": 5409,
			"事件": 5410,
			"聯合": 5411,
			"加入": 5412,
			"計劃": 5413,
			"舉行": 5414,
			"兩個": 5415,
			"生平": 5416,
			"重要": 5417,
			"但是": 5418,
			"分佈": 5419,
			"決定": 5420,
			"技術": 5421,
			"擁有": 5422,
			"尼亞": 5423,
			"海拔": 5424,
			"學生": 5425,
			"雖然": 5426,
			"地方": 5427,
			"方面": 5428,
			"需要": 5429,
			"資訊": 5430,
			"冠軍": 5431,
			"並且": 5432,
			"同年": 5433,
			"系列": 5434,
			"俄羅斯": 5435,
			"民國": 5436,
			"專輯": 5437,
			"完成": 5438,
			"高度": 5439,
			"組成": 5440,
			"當地": 5441,
			"受到": 5442,
			"執行": 5443,
			"要求": 5444,
			"歐洲": 5445,
			"大陸": 5446,
			"下轄": 5447,
			"情況": 5448,
			"最高": 5449,
			"獨立": 5450,
			"分別": 5451,
			"成功": 5452,
			"自由": 5453,
			"上海": 5454,
			"一般": 5455,
			"方式": 5456,
			"藝術": 5457,
			"交通": 5458,
			"總統": 5459,
			"導致": 5460,
			"開發": 5461,
			"選舉": 5462,
			"行政區": 5463,
			"列車": 5464,
			"會議": 5465,
			"來自": 5466,
			"畢業": 5467,
			"科學": 5468,
			"前往": 5469,
			"人員": 5470,
			"密度": 5471,
			"一名": 5472,
			"印度": 5473,
			"然而": 5474,
			"第三": 5475,
			"專案": 5476,
			"國民": 5477,
			"得到": 5478,
			"地理": 5479,
			"產生": 5480,
			"物種": 5481,
			"合作": 5482,
			"設有": 5483,
			"集團": 5484,
			"存在": 5485,
			"個人": 5486,
			"所以": 5487,
			"聯盟": 5488,
			"控制": 5489,
			"結束": 5490,
			"最大": 5491,
			"通常": 5492,
			"提出": 5493,
			"故事": 5494,
			"特別": 5495,
			"就是": 5496,
			"無法": 5497,
			"具有": 5498,
			"球隊": 5499,
			"結構": 5500,
			"程式": 5501,
			"對於": 5502,
			"管轄": 5503,
			"這種": 5504,
			"聯賽": 5505,
			"民主": 5506,
			"生產": 5507,
			"不過": 5508,
			"角色": 5509,
			"結果": 5510,
			"父親": 5511,
			"出版": 5512,
			"主席": 5513,
			"形成": 5514,
			"例如": 5515,
			"網路": 5516,
			"西亞": 5517,
			"革命": 5518,
			"另外": 5519,
			"接受": 5520,
			"人口密度": 5521,
			"行星": 5522,
			"編碼": 5523,
			"南部": 5524,
			"部隊": 5525,
			"時代": 5526,
			"帝國": 5527,
			"行動": 5528,
			"機構": 5529,
			"採用": 5530,
			"一直": 5531,
			"繼續": 5532,
			"領導": 5533,
			"並在": 5534,
			"增加": 5535,
			"運動員": 5536,
			"取得": 5537,
			"女性": 5538,
			"只有": 5539,
			"新聞": 5540,
			"造成": 5541,
			"一位": 5542,
			"首次": 5543,
			"此外": 5544,
			"歌曲": 5545,
			"阿爾": 5546,
			"語言": 5547,
			"千米": 5548,
			"超過": 5549,
			"動物": 5550,
			"男子": 5551,
			"海軍": 5552,
			"這是": 5553,
			"傳統": 5554,
			"能力": 5555,
			"中共": 5556,
			"航空": 5557,
			"附近": 5558,
			"出生": 5559,
			"韓國": 5560,
			"經過": 5561,
			"一起": 5562,
			"羅馬": 5563,
			"軍事": 5564,
			"一次": 5565,
			"任何": 5566,
			"植物": 5567,
			"如果": 5568,
			"的是": 5569,
			"平均": 5570,
			"戰鬥": 5571,
			"調查": 5572,
			"克蘭": 5573,
			"省份": 5574,
			"非常": 5575,
			"一座": 5576,
			"過程": 5577,
			"內容": 5578,
			"重新": 5579,
			"有限": 5580,
			"命名": 5581,
			"現在": 5582,
			"數量": 5583,
			"媒體": 5584,
			"有關": 5585,
			"區域": 5586,
			"之前": 5587,
			"名稱": 5588,
			"機場": 5589,
			"主教": 5590,
			"建設": 5591,
			"主任": 5592,
			"書記": 5593,
			"不是": 5594,
			"工業": 5595,
			"除了": 5596,
			"隨後": 5597,
			"發表": 5598,
			"位置": 5599,
			"最佳": 5600,
			"共產": 5601,
			"紀念": 5602,
			"演員": 5603,
			"蘇聯": 5604,
			"議會": 5605,
			"女子": 5606,
			"我們": 5607,
			"安全": 5608,
			"現代": 5609,
			"義大": 5610,
			"標準": 5611,
			"範圍": 5612,
			"義大利": 5613,
			"環境": 5614,
			"大量": 5615,
			"反應": 5616,
			"中學": 5617,
			"攻擊": 5618,
			"還有": 5619,
			"中華民國": 5620,
			"中國大陸": 5621,
			"版本": 5622,
			"烏克蘭": 5623,
			"反對": 5624,
			"軍隊": 5625,
			"公園": 5626,
			"利用": 5627,
			"文學": 5628,
			"居民": 5629,
			"西南": 5630,
			"第四": 5631,
			"共有": 5632,
			"甚至": 5633,
			"創作": 5634,
			"賽事": 5635,
			"該國": 5636,
			"教授": 5637,
			"直接": 5638,
			"第十": 5639,
			"舉辦": 5640,
			"選區": 5641,
			"西班": 5642,
			"完全": 5643,
			"接壤": 5644,
			"行政區劃": 5645,
			"職業": 5646,
			"斯特": 5647,
			"生物": 5648,
			"平方千米": 5649,
			"行為": 5650,
			"協會": 5651,
			"指揮": 5652,
			"自治": 5653,
			"方法": 5654,
			"動畫": 5655,
			"推出": 5656,
			"用於": 5657,
			"二十": 5658,
			"裝置": 5659,
			"小說": 5660,
			"人類": 5661,
			"民族": 5662,
			"選擇": 5663,
			"所屬": 5664,
			"必須": 5665,
			"設定": 5666,
			"格蘭": 5667,
			"企業": 5668,
			"熱帶": 5669,
			"小時": 5670,
			"共同": 5671,
			"直到": 5672,
			"距離": 5673,
			"處理": 5674,
			"法院": 5675,
			"西班牙": 5676,
			"生涯": 5677,
			"大會": 5678,
			"形式": 5679,
			"再次": 5680,
			"公路": 5681,
			"議員": 5682,
			"公開": 5683,
			"設立": 5684,
			"顯示": 5685,
			"於是": 5686,
			"多數": 5687,
			"以來": 5688,
			"電子": 5689,
			"小行星": 5690,
			"著名": 5691,
			"演出": 5692,
			"希望": 5693,
			"學習": 5694,
			"聯邦": 5695,
			"家庭": 5696,
			"市場": 5697,
			"關於": 5698,
			"釋出": 5699,
			"解放": 5700,
			"報告": 5701,
			"銀行": 5702,
			"自然": 5703,
			"一年": 5704,
			"體育": 5705,
			"一部分": 5706,
			"部長": 5707,
			"醫院": 5708,
			"時的": 5709,
			"隨著": 5710,
			"包含": 5711,
			"離開": 5712,
			"亞洲": 5713,
			"基本": 5714,
			"東北": 5715,
			"團體": 5716,
			"三個": 5717,
			"家族": 5718,
			"不能": 5719,
			"文物": 5720,
			"製造": 5721,
			"政策": 5722,
			"播出": 5723,
			"功能": 5724,
			"大區": 5725,
			"路線": 5726,
			"曾經": 5727,
			"能夠": 5728,
			"一樣": 5729,
			"理論": 5730,
			"法律": 5731,
			"基礎": 5732,
			"它們": 5733,
			"死亡": 5734,
			"廣東": 5735,
			"任務": 5736,
			"為人": 5737,
			"美元": 5738,
			"而且": 5739,
			"太陽": 5740,
			"改為": 5741,
			"嚴重": 5742,
			"西部": 5743,
			"紀錄": 5744,
			"年間": 5745,
			"決賽": 5746,
			"當中": 5747,
			"空間": 5748,
			"月臺": 5749,
			"共產黨": 5750,
			"各種": 5751,
			"社群": 5752,
			"影片": 5753,
			"類似": 5754,
			"作用": 5755,
			"將軍": 5756,
			"巴士": 5757,
			"達到": 5758,
			"拍攝": 5759,
			"相當": 5760,
			"唯一": 5761,
			"早期": 5762,
			"運動會": 5763,
			"原因": 5764,
			"應用": 5765,
			"有限公司": 5766,
			"官方": 5767,
			"統治": 5768,
			"街道": 5769,
			"實際": 5770,
			"表現": 5771,
			"公共": 5772,
			"母親": 5773,
			"模式": 5774,
			"主持": 5775,
			"以上": 5776,
			"等人": 5777,
			"拿大": 5778,
			"全球": 5779,
			"商業": 5780,
			"最初": 5781,
			"專業": 5782,
			"人士": 5783,
			"加拿大": 5784,
			"第一次": 5785,
			"擴充": 5786,
			"其後": 5787,
			"規模": 5788,
			"浙江": 5789,
			"廣播": 5790,
			"產品": 5791,
			"時候": 5792,
			"儘管": 5793,
			"計算": 5794,
			"廣州": 5795,
			"當選": 5796,
			"博物": 5797,
			"東南": 5798,
			"連線": 5799,
			"爾省": 5800,
			"描述": 5801,
			"朝鮮": 5802,
			"化學": 5803,
			"恢復": 5804,
			"去世": 5805,
			"兩人": 5806,
			"很多": 5807,
			"太平": 5808,
			"使得": 5809,
			"宗教": 5810,
			"設施": 5811,
			"等地": 5812,
			"外交": 5813,
			"山東": 5814,
			"號線": 5815,
			"不會": 5816,
			"變化": 5817,
			"青年": 5818,
			"斯坦": 5819,
			"事務": 5820,
			"主題": 5821,
			"公佈": 5822,
			"擊敗": 5823,
			"阿拉": 5824,
			"仍然": 5825,
			"大部分": 5826,
			"幫助": 5827,
			"賽季": 5828,
			"演唱": 5829,
			"套件": 5830,
			"軌道": 5831,
			"訓練": 5832,
			"目標": 5833,
			"東京": 5834,
			"武器": 5835,
			"國王": 5836,
			"逐漸": 5837,
			"開放": 5838,
			"奧運": 5839,
			"持續": 5840,
			"澳門": 5841,
			"男性": 5842,
			"這樣": 5843,
			"馬來": 5844,
			"道路": 5845,
			"博士": 5846,
			"單曲": 5847,
			"發動": 5848,
			"一條": 5849,
			"兒子": 5850,
			"總人口": 5851,
			"協助": 5852,
			"地下": 5853,
			"合併": 5854,
			"司令": 5855,
			"主角": 5856,
			"則是": 5857,
			"排名": 5858,
			"夏季": 5859,
			"球員": 5860,
			"指出": 5861,
			"經常": 5862,
			"成績": 5863,
			"歌手": 5864,
			"博物館": 5865,
			"稱為": 5866,
			"規定": 5867,
			"十二": 5868,
			"地球": 5869,
			"目的": 5870,
			"漫畫": 5871,
			"基督": 5872,
			"約翰": 5873,
			"全部": 5874,
			"遭到": 5875,
			"名字": 5876,
			"定義": 5877,
			"風格": 5878,
			"投資": 5879,
			"紐約": 5880,
			"土地": 5881,
			"東部": 5882,
			"身份": 5883,
			"背景": 5884,
			"中文": 5885,
			"錦標": 5886,
			"西北": 5887,
			"年度": 5888,
			"郵政": 5889,
			"林匹": 5890,
			"實驗": 5891,
			"改革": 5892,
			"相同": 5893,
			"玩家": 5894,
			"飛機": 5895,
			"爆發": 5896,
			"爾斯": 5897,
			"每年": 5898,
			"方向": 5899,
			"大戰": 5900,
			"導演": 5901,
			"回到": 5902,
			"四川": 5903,
			"辦公": 5904,
			"曾任": 5905,
			"整個": 5906,
			"建造": 5907,
			"及其": 5908,
			"批評": 5909,
			"規劃": 5910,
			"過去": 5911,
			"也可": 5912,
			"細胞": 5913,
			"大型": 5914,
			"力量": 5915,
			"制度": 5916,
			"與其": 5917,
			"處於": 5918,
			"省級": 5919,
			"科技": 5920,
			"高速": 5921,
			"三十": 5922,
			"棲息": 5923,
			"立法": 5924,
			"林匹克": 5925,
			"檔案": 5926,
			"部門": 5927,
			"飛行": 5928,
			"戰役": 5929,
			"樂部": 5930,
			"越南": 5931,
			"還是": 5932,
			"學者": 5933,
			"經營": 5934,
			"然後": 5935,
			"境內": 5936,
			"取代": 5937,
			"特徵": 5938,
			"不久": 5939,
			"俱樂部": 5940,
			"群島": 5941,
			"奧林匹克": 5942,
			"相對": 5943,
			"普查": 5944,
			"希臘": 5945,
			"階段": 5946,
			"速度": 5947,
			"引起": 5948,
			"南京": 5949,
			"天津": 5950,
			"連續": 5951,
			"警察": 5952,
			"鄉鎮": 5953,
			"先後": 5954,
			"總面積": 5955,
			"閱讀": 5956,
			"陸軍": 5957,
			"領域": 5958,
			"第二次": 5959,
			"一部": 5960,
			"記者": 5961,
			"記載": 5962,
			"條件": 5963,
			"機車": 5964,
			"改變": 5965,
			"居住": 5966,
			"多次": 5967,
			"出身": 5968,
			"隸屬": 5969,
			"定向": 5970,
			"貿易": 5971,
			"網站": 5972,
			"原本": 5973,
			"生於": 5974,
			"明朝": 5975,
			"倫敦": 5976,
			"業務": 5977,
			"此後": 5978,
			"建議": 5979,
			"或者": 5980,
			"美洲": 5981,
			"狀態": 5982,
			"平臺": 5983,
			"分類": 5984,
			"物理": 5985,
			"作戰": 5986,
			"三年": 5987,
			"第五": 5988,
			"最早": 5989,
			"學位": 5990,
			"公尺": 5991,
			"新增": 5992,
			"日至": 5993,
			"廣場": 5994,
			"同樣": 5995,
			"汽車": 5996,
			"資源": 5997,
			"表演": 5998,
			"克斯": 5999,
			"人們": 6000,
			"比較": 6001,
			"毫米": 6002,
			"各地": 6003,
			"未來": 6004,
			"地位": 6005,
			"參賽": 6006,
			"流行": 6007,
			"雜誌": 6008,
			"分析": 6009,
			"爭議": 6010,
			"不少": 6011,
			"作曲": 6012,
			"資格": 6013,
			"作家": 6014,
			"有人": 6015,
			"十年": 6016,
			"經歷": 6017,
			"高中": 6018,
			"普通": 6019,
			"電視臺": 6020,
			"幾乎": 6021,
			"十分": 6022,
			"宣傳": 6023,
			"評論": 6024,
			"聯絡": 6025,
			"比亞": 6026,
			"減少": 6027,
			"準備": 6028,
			"人口普查": 6029,
			"運輸": 6030,
			"解放軍": 6031,
			"拒絕": 6032,
			"福建": 6033,
			"喜歡": 6034,
			"計畫": 6035,
			"圖書": 6036,
			"王國": 6037,
			"破壞": 6038,
			"錦標賽": 6039,
			"下的": 6040,
			"贏得": 6041,
			"任命": 6042,
			"加上": 6043,
			"儲存": 6044,
			"進士": 6045,
			"左右": 6046,
			"以後": 6047,
			"第一個": 6048,
			"一步": 6049,
			"醫學": 6050,
			"佔領": 6051,
			"地鐵": 6052,
			"農業": 6053,
			"這一": 6054,
			"大約": 6055,
			"展開": 6056,
			"少年": 6057,
			"每個": 6058,
			"車輛": 6059,
			"國會": 6060,
			"一定": 6061,
			"發射": 6062,
			"波蘭": 6063,
			"清朝": 6064,
			"郵政編碼": 6065,
			"貝爾": 6066,
			"內部": 6067,
			"教堂": 6068,
			"軟體": 6069,
			"加坡": 6070,
			"繼承": 6071,
			"精神": 6072,
			"兄弟": 6073,
			"記錄": 6074,
			"里斯": 6075,
			"病毒": 6076,
			"官員": 6077,
			"統一": 6078,
			"現時": 6079,
			"一家": 6080,
			"線路": 6081,
			"選手": 6082,
			"分子": 6083,
			"只是": 6084,
			"機關": 6085,
			"高階": 6086,
			"在日": 6087,
			"萬人": 6088,
			"廣泛": 6089,
			"國內": 6090,
			"組合": 6091,
			"女兒": 6092,
			"之外": 6093,
			"大樓": 6094,
			"多個": 6095,
			"實現": 6096,
			"初期": 6097,
			"新加坡": 6098,
			"保持": 6099,
			"北市": 6100,
			"分鐘": 6101,
			"快速": 6102,
			"治療": 6103,
			"至今": 6104,
			"拉斯": 6105,
			"小學": 6106,
			"和平": 6107,
			"星期": 6108,
			"基地": 6109,
			"評價": 6110,
			"長期": 6111,
			"訊息": 6112,
			"電視劇": 6113,
			"澳大": 6114,
			"葡萄": 6115,
			"娛樂": 6116,
			"城鎮": 6117,
			"旅遊": 6118,
			"朋友": 6119,
			"協議": 6120,
			"列表": 6121,
			"自動": 6122,
			"興建": 6123,
			"劇情": 6124,
			"馬來西亞": 6125,
			"大多數": 6126,
			"斯科": 6127,
			"限制": 6128,
			"解決": 6129,
			"河南": 6130,
			"概念": 6131,
			"巴西": 6132,
			"不斷": 6133,
			"出任": 6134,
			"分為": 6135,
			"太平洋": 6136,
			"曾在": 6137,
			"妻子": 6138,
			"委會": 6139,
			"投票": 6140,
			"超級": 6141,
			"實施": 6142,
			"時區": 6143,
			"荷蘭": 6144,
			"登場": 6145,
			"知道": 6146,
			"唱片": 6147,
			"此時": 6148,
			"董事": 6149,
			"基於": 6150,
			"兒童": 6151,
			"雲南": 6152,
			"統計": 6153,
			"條約": 6154,
			"雙方": 6155,
			"澳大利亞": 6156,
			"進攻": 6157,
			"截至": 6158,
			"英格蘭": 6159,
			"特殊": 6160,
			"教會": 6161,
			"起來": 6162,
			"為主": 6163,
			"交易": 6164,
			"江蘇": 6165,
			"座標": 6166,
			"訊號": 6167,
			"空軍": 6168,
			"水域": 6169,
			"都會": 6170,
			"返回": 6171,
			"綜合": 6172,
			"屬下": 6173,
			"皇帝": 6174,
			"公分": 6175,
			"伊斯": 6176,
			"盧瓦": 6177,
			"日起": 6178,
			"奧林匹克運動會": 6179,
			"是否": 6180,
			"集中": 6181,
			"年輕": 6182,
			"因而": 6183,
			"頻道": 6184,
			"同意": 6185,
			"有些": 6186,
			"秘書": 6187,
			"又稱": 6188,
			"思想": 6189,
			"如下": 6190,
			"基金": 6191,
			"身體": 6192,
			"結婚": 6193,
			"研究所": 6194,
			"喬治": 6195,
			"艦隊": 6196,
			"元素": 6197,
			"將其": 6198,
			"維持": 6199,
			"邀請": 6200,
			"不明": 6201,
			"二世": 6202,
			"湖南": 6203,
			"巴黎": 6204,
			"一顆": 6205,
			"批准": 6206,
			"小組": 6207,
			"猶太": 6208,
			"改編": 6209,
			"臨時": 6210,
			"教區": 6211,
			"始建": 6212,
			"可達": 6213,
			"一場": 6214,
			"程度": 6215,
			"從事": 6216,
			"觀眾": 6217,
			"方案": 6218,
			"證明": 6219,
			"飾演": 6220,
			"產業": 6221,
			"函式": 6222,
			"承認": 6223,
			"孩子": 6224,
			"祖父": 6225,
			"首都": 6226,
			"自治區": 6227,
			"襲擊": 6228,
			"試圖": 6229,
			"配音": 6230,
			"國立": 6231,
			"金屬": 6232,
			"宣告": 6233,
			"材料": 6234,
			"解釋": 6235,
			"討論": 6236,
			"勝利": 6237,
			"不可": 6238,
			"國務": 6239,
			"佛教": 6240,
			"總理": 6241,
			"殖民": 6242,
			"針對": 6243,
			"大使": 6244,
			"出來": 6245,
			"河流": 6246,
			"不再": 6247,
			"逝世": 6248,
			"正在": 6249,
			"本地": 6250,
			"未能": 6251,
			"投入": 6252,
			"日軍": 6253,
			"國民黨": 6254,
			"有效": 6255,
			"衛生": 6256,
			"英文": 6257,
			"就讀": 6258,
			"核心": 6259,
			"電腦": 6260,
			"變成": 6261,
			"西洋": 6262,
			"價值": 6263,
			"總部": 6264,
			"失去": 6265,
			"人數": 6266,
			"東西": 6267,
			"維爾": 6268,
			"衝突": 6269,
			"塞爾": 6270,
			"停止": 6271,
			"進一步": 6272,
			"運營": 6273,
			"而是": 6274,
			"名為": 6275,
			"確定": 6276,
			"鐵道": 6277,
			"名單": 6278,
			"第六": 6279,
			"氧化": 6280,
			"看到": 6281,
			"取消": 6282,
			"或是": 6283,
			"皇家": 6284,
			"訪問": 6285,
			"接近": 6286,
			"半島": 6287,
			"公民": 6288,
			"武裝": 6289,
			"南極": 6290,
			"交流": 6291,
			"高等": 6292,
			"著作": 6293,
			"生長": 6294,
			"校長": 6295,
			"奧斯": 6296,
			"測試": 6297,
			"樂團": 6298,
			"效力": 6299,
			"山脈": 6300,
			"圖書館": 6301,
			"重點": 6302,
			"收錄": 6303,
			"天主教": 6304,
			"感染": 6305,
			"機會": 6306,
			"數學": 6307,
			"狀況": 6308,
			"一同": 6309,
			"的歷": 6310,
			"申請": 6311,
			"事業": 6312,
			"一世": 6313,
			"通訊": 6314,
			"卡爾": 6315,
			"王朝": 6316,
			"重建": 6317,
			"上映": 6318,
			"所在": 6319,
			"流域": 6320,
			"安排": 6321,
			"議院": 6322,
			"恆星": 6323,
			"主演": 6324,
			"失敗": 6325,
			"到達": 6326,
			"旗下": 6327,
			"地利": 6328,
			"保留": 6329,
			"非洲": 6330,
			"文字": 6331,
			"調整": 6332,
			"世界大戰": 6333,
			"銷售": 6334,
			"醫療": 6335,
			"再度": 6336,
			"同一": 6337,
			"物質": 6338,
			"多年": 6339,
			"山西": 6340,
			"提名": 6341,
			"早年": 6342,
			"移動": 6343,
			"哲學": 6344,
			"啟用": 6345,
			"威廉": 6346,
			"機械": 6347,
			"感到": 6348,
			"憲法": 6349,
			"民眾": 6350,
			"更名": 6351,
			"常見": 6352,
			"職務": 6353,
			"直至": 6354,
			"國防": 6355,
			"命令": 6356,
			"年中": 6357,
			"現場": 6358,
			"用來": 6359,
			"警方": 6360,
			"報道": 6361,
			"編號": 6362,
			"西方": 6363,
			"法蘭": 6364,
			"戰後": 6365,
			"創立": 6366,
			"電臺": 6367,
			"應該": 6368,
			"五年": 6369,
			"穩定": 6370,
			"物件": 6371,
			"播放": 6372,
			"創辦": 6373,
			"現象": 6374,
			"引發": 6375,
			"尚未": 6376,
			"觀察": 6377,
			"考慮": 6378,
			"健康": 6379,
			"課程": 6380,
			"教練": 6381,
			"全長": 6382,
			"第七": 6383,
			"一度": 6384,
			"英語": 6385,
			"奧地利": 6386,
			"遺址": 6387,
			"質量": 6388,
			"四個": 6389,
			"團隊": 6390,
			"高雄": 6391,
			"結合": 6392,
			"爾德": 6393,
			"海岸": 6394,
			"巨大": 6395,
			"翻譯": 6396,
			"生命": 6397,
			"四年": 6398,
			"提高": 6399,
			"關注": 6400,
			"廣告": 6401,
			"有時": 6402,
			"以前": 6403,
			"對手": 6404,
			"只能": 6405,
			"少數": 6406,
			"鎮區": 6407,
			"發出": 6408,
			"高的": 6409,
			"森林": 6410,
			"以外": 6411,
			"地面": 6412,
			"構成": 6413,
			"收入": 6414,
			"一項": 6415,
			"風暴": 6416,
			"召開": 6417,
			"瑞典": 6418,
			"出口": 6419,
			"歡迎": 6420,
			"不得": 6421,
			"這裡": 6422,
			"如此": 6423,
			"阿拉伯": 6424,
			"介紹": 6425,
			"體系": 6426,
			"重慶": 6427,
			"瑞士": 6428,
			"地點": 6429,
			"中山": 6430,
			"一段": 6431,
			"聯合國": 6432,
			"移民": 6433,
			"氣象": 6434,
			"衛星": 6435,
			"創造": 6436,
			"入侵": 6437,
			"明顯": 6438,
			"帶來": 6439,
			"兩種": 6440,
			"時任": 6441,
			"馬克": 6442,
			"合物": 6443,
			"隧道": 6444,
			"什麼": 6445,
			"維亞": 6446,
			"江西": 6447,
			"體長": 6448,
			"一帶": 6449,
			"人大": 6450,
			"注意": 6451,
			"之下": 6452,
			"大臣": 6453,
			"來說": 6454,
			"模型": 6455,
			"伊斯蘭": 6456,
			"氣候": 6457,
			"籃球": 6458,
			"文章": 6459,
			"表面": 6460,
			"並將": 6461,
			"來到": 6462,
			"相似": 6463,
			"從而": 6464,
			"紅色": 6465,
			"性質": 6466,
			"市長": 6467,
			"挑戰": 6468,
			"允許": 6469,
			"中部": 6470,
			"知名": 6471,
			"這次": 6472,
			"意識": 6473,
			"特色": 6474,
			"避免": 6475,
			"建成": 6476,
			"學術": 6477,
			"曾代表": 6478,
			"撤銷": 6479,
			"說法": 6480,
			"禁止": 6481,
			"傳說": 6482,
			"在內": 6483,
			"權力": 6484,
			"學會": 6485,
			"客運": 6486,
			"平方米": 6487,
			"簡介": 6488,
			"是日": 6489,
			"尤其": 6490,
			"給予": 6491,
			"至少": 6492,
			"南北": 6493,
			"編輯": 6494,
			"儀式": 6495,
			"市民": 6496,
			"放棄": 6497,
			"並未": 6498,
			"維基": 6499,
			"天文": 6500,
			"政黨": 6501,
			"是以": 6502,
			"病例": 6503,
			"找到": 6504,
			"幾個": 6505,
			"路易": 6506,
			"之中": 6507,
			"得以": 6508,
			"本身": 6509,
			"容易": 6510,
			"發售": 6511,
			"引擎": 6512,
			"主張": 6513,
			"不足": 6514,
			"辦公室": 6515,
			"少女": 6516,
			"海域": 6517,
			"簡稱": 6518,
			"當年": 6519,
			"某些": 6520,
			"總督": 6521,
			"區的": 6522,
			"確診": 6523,
			"普遍": 6524,
			"財政": 6525,
			"現任": 6526,
			"提升": 6527,
			"動力": 6528,
			"泰國": 6529,
			"東方": 6530,
			"有所": 6531,
			"接觸": 6532,
			"實際上": 6533,
			"英雄": 6534,
			"克拉": 6535,
			"新疆": 6536,
			"深圳": 6537,
			"臺北市": 6538,
			"抵達": 6539,
			"規則": 6540,
			"事實": 6541,
			"酒店": 6542,
			"其它": 6543,
			"金牌": 6544,
			"國務院": 6545,
			"威脅": 6546,
			"候選": 6547,
			"年時": 6548,
			"颱風": 6549,
			"發電": 6550,
			"乘客": 6551,
			"增長": 6552,
			"西哥": 6553,
			"強烈": 6554,
			"薩克": 6555,
			"古代": 6556,
			"和一": 6557,
			"駕駛": 6558,
			"發起": 6559,
			"周邊": 6560,
			"工人": 6561,
			"旅客": 6562,
			"爾蘭": 6563,
			"律賓": 6564,
			"金融": 6565,
			"西藏": 6566,
			"父母": 6567,
			"表達": 6568,
			"騎士": 6569,
			"公主": 6570,
			"指定": 6571,
			"全面": 6572,
			"菲律賓": 6573,
			"股份": 6574,
			"記憶": 6575,
			"的實": 6576,
			"北起": 6577,
			"河北": 6578,
			"來的": 6579,
			"又名": 6580,
			"十六": 6581,
			"羽毛": 6582,
			"並非": 6583,
			"宇宙": 6584,
			"貢獻": 6585,
			"市區": 6586,
			"才能": 6587,
			"配合": 6588,
			"華人": 6589,
			"院長": 6590,
			"積極": 6591,
			"一系列": 6592,
			"專家": 6593,
			"將會": 6594,
			"大西洋": 6595,
			"建制": 6596,
			"部份": 6597,
			"競爭": 6598,
			"輻鰭": 6599,
			"意義": 6600,
			"疫情": 6601,
			"採取": 6602,
			"臺中": 6603,
			"榮譽": 6604,
			"改造": 6605,
			"政權": 6606,
			"下屬": 6607,
			"營運": 6608,
			"安德": 6609,
			"奪得": 6610,
			"後期": 6611,
			"當局": 6612,
			"工廠": 6613,
			"其餘": 6614,
			"品牌": 6615,
			"參考": 6616,
			"不滿": 6617,
			"魔法": 6618,
			"授予": 6619,
			"電力": 6620,
			"打擊": 6621,
			"一切": 6622,
			"教師": 6623,
			"安裝": 6624,
			"威爾": 6625,
			"年成": 6626,
			"傳播": 6627,
			"特定": 6628,
			"迅速": 6629,
			"購買": 6630,
			"數字": 6631,
			"民間": 6632,
			"澳洲": 6633,
			"埃及": 6634,
			"理事": 6635,
			"九龍": 6636,
			"武漢": 6637,
			"教學": 6638,
			"公眾": 6639,
			"作出": 6640,
			"字母": 6641,
			"機器": 6642,
			"安徽": 6643,
			"估計": 6644,
			"本土": 6645,
			"外國": 6646,
			"出道": 6647,
			"億元": 6648,
			"美術": 6649,
			"入選": 6650,
			"舞臺": 6651,
			"如何": 6652,
			"年齡": 6653,
			"哈爾": 6654,
			"愛爾蘭": 6655,
			"表明": 6656,
			"米爾": 6657,
			"勢力": 6658,
			"達成": 6659,
			"吸引": 6660,
			"湖北": 6661,
			"墨西哥": 6662,
			"建於": 6663,
			"實行": 6664,
			"晚上": 6665,
			"改名": 6666,
			"本站": 6667,
			"按照": 6668,
			"兩年": 6669,
			"耳其": 6670,
			"廣東省": 6671,
			"隊伍": 6672,
			"得知": 6673,
			"尼斯": 6674,
			"很大": 6675,
			"地震": 6676,
			"白色": 6677,
			"部落": 6678,
			"措施": 6679,
			"代表大會": 6680,
			"率領": 6681,
			"姆斯": 6682,
			"蛋白": 6683,
			"恩省": 6684,
			"作者": 6685,
			"海外": 6686,
			"推動": 6687,
			"那裡": 6688,
			"工具": 6689,
			"完整": 6690,
			"太空": 6691,
			"東北部": 6692,
			"律師": 6693,
			"標誌": 6694,
			"壓力": 6695,
			"即使": 6696,
			"缺乏": 6697,
			"以色": 6698,
			"土耳其": 6699,
			"簡單": 6700,
			"基因": 6701,
			"觀點": 6702,
			"一級": 6703,
			"智慧": 6704,
			"局長": 6705,
			"心理": 6706,
			"萬元": 6707,
			"陝西": 6708,
			"公元": 6709,
			"因素": 6710,
			"經驗": 6711,
			"邊界": 6712,
			"抗日": 6713,
			"年底": 6714,
			"蒙古": 6715,
			"伊朗": 6716,
			"十字": 6717,
			"意見": 6718,
			"歲時": 6719,
			"秘密": 6720,
			"變得": 6721,
			"專門": 6722,
			"複雜": 6723,
			"受傷": 6724,
			"二年": 6725,
			"案件": 6726,
			"拉克": 6727,
			"效果": 6728,
			"南方": 6729,
			"顧問": 6730,
			"涉及": 6731,
			"面對": 6732,
			"真正": 6733,
			"疾病": 6734,
			"需求": 6735,
			"基督教": 6736,
			"權利": 6737,
			"食物": 6738,
			"原始": 6739,
			"海洋": 6740,
			"裝備": 6741,
			"更加": 6742,
			"伯特": 6743,
			"編曲": 6744,
			"下來": 6745,
			"十八": 6746,
			"責任": 6747,
			"被迫": 6748,
			"種族": 6749,
			"輸入": 6750,
			"住宅": 6751,
			"水平": 6752,
			"操作": 6753,
			"樂隊": 6754,
			"確認": 6755,
			"黑色": 6756,
			"元年": 6757,
			"南至": 6758,
			"更新": 6759,
			"大小": 6760,
			"碩士": 6761,
			"戲劇": 6762,
			"展示": 6763,
			"出席": 6764,
			"彼得": 6765,
			"三角": 6766,
			"簽署": 6767,
			"領袖": 6768,
			"日報": 6769,
			"陸地": 6770,
			"報導": 6771,
			"領土": 6772,
			"重大": 6773,
			"生態": 6774,
			"原子": 6775,
			"內陸": 6776,
			"後者": 6777,
			"其實": 6778,
			"球會": 6779,
			"匈牙": 6780,
			"世界盃": 6781,
			"社會主義": 6782,
			"辦事": 6783,
			"東南部": 6784,
			"多種": 6785,
			"收購": 6786,
			"大道": 6787,
			"奧運會": 6788,
			"殺死": 6789,
			"西北部": 6790,
			"擴大": 6791,
			"相比": 6792,
			"抗議": 6793,
			"改善": 6794,
			"等等": 6795,
			"作詞": 6796,
			"裝甲": 6797,
			"藥物": 6798,
			"混合": 6799,
			"經理": 6800,
			"事故": 6801,
			"延伸": 6802,
			"指導": 6803,
			"能量": 6804,
			"先生": 6805,
			"斯克": 6806,
			"正常": 6807,
			"瞭解": 6808,
			"中間": 6809,
			"魚綱": 6810,
			"貴族": 6811,
			"情報": 6812,
			"眾多": 6813,
			"歷山": 6814,
			"形象": 6815,
			"村落": 6816,
			"神經": 6817,
			"證據": 6818,
			"加盟": 6819,
			"參謀": 6820,
			"廣西": 6821,
			"對方": 6822,
			"勞動": 6823,
			"上午": 6824,
			"最多": 6825,
			"動作": 6826,
			"冬季": 6827,
			"退出": 6828,
			"很快": 6829,
			"強調": 6830,
			"犯罪": 6831,
			"歷任": 6832,
			"葡萄牙": 6833,
			"前身": 6834,
			"信仰": 6835,
			"照片": 6836,
			"司法": 6837,
			"大賽": 6838,
			"拉夫": 6839,
			"坦克": 6840,
			"東臨": 6841,
			"持有": 6842,
			"對外": 6843,
			"對此": 6844,
			"不僅": 6845,
			"對抗": 6846,
			"尋找": 6847,
			"週年": 6848,
			"提到": 6849,
			"海峽": 6850,
			"都市": 6851,
			"防禦": 6852,
			"構造": 6853,
			"發布": 6854,
			"德里": 6855,
			"留下": 6856,
			"首府": 6857,
			"小型": 6858,
			"家人": 6859,
			"軍區": 6860,
			"戰略": 6861,
			"請求": 6862,
			"固定": 6863,
			"平面": 6864,
			"淡水": 6865,
			"出入": 6866,
			"轉移": 6867,
			"回應": 6868,
			"說明": 6869,
			"日期": 6870,
			"大致": 6871,
			"夫人": 6872,
			"象徵": 6873,
			"危機": 6874,
			"示威": 6875,
			"藝人": 6876,
			"醫生": 6877,
			"長度": 6878,
			"有機": 6879,
			"突然": 6880,
			"星等": 6881,
			"努力": 6882,
			"降低": 6883,
			"損失": 6884,
			"形態": 6885,
			"為止": 6886,
			"美軍": 6887,
			"退休": 6888,
			"絕對": 6889,
			"型別": 6890,
			"政協": 6891,
			"史上": 6892,
			"瑪麗": 6893,
			"連結": 6894,
			"顏色": 6895,
			"整體": 6896,
			"症狀": 6897,
			"師範": 6898,
			"修改": 6899,
			"攝影": 6900,
			"北方": 6901,
			"而言": 6902,
			"步兵": 6903,
			"加強": 6904,
			"遺產": 6905,
			"州市": 6906,
			"候選人": 6907,
			"視為": 6908,
			"列為": 6909,
			"運作": 6910,
			"代理": 6911,
			"錯誤": 6912,
			"維奇": 6913,
			"原則": 6914,
			"溫度": 6915,
			"執導": 6916,
			"開設": 6917,
			"起源": 6918,
			"會長": 6919,
			"登陸": 6920,
			"覆蓋": 6921,
			"促進": 6922,
			"患者": 6923,
			"一支": 6924,
			"自身": 6925,
			"皇后": 6926,
			"退役": 6927,
			"高速公路": 6928,
			"阻止": 6929,
			"斯基": 6930,
			"本人": 6931,
			"任中": 6932,
			"階級": 6933,
			"真實": 6934,
			"名義": 6935,
			"內閣": 6936,
			"大廈": 6937,
			"的話": 6938,
			"埃爾": 6939,
			"恐怖": 6940,
			"大規模": 6941,
			"士兵": 6942,
			"原來": 6943,
			"比例": 6944,
			"併入": 6945,
			"觀測": 6946,
			"蘇格蘭": 6947,
			"柏林": 6948,
			"下降": 6949,
			"沿海": 6950,
			"尼亞州": 6951,
			"試驗": 6952,
			"通車": 6953,
			"資金": 6954,
			"近年": 6955,
			"合成": 6956,
			"做出": 6957,
			"風險": 6958,
			"列入": 6959,
			"關閉": 6960,
			"開通": 6961,
			"私人": 6962,
			"差異": 6963,
			"火箭": 6964,
			"哥倫": 6965,
			"通道": 6966,
			"敵人": 6967,
			"檢測": 6968,
			"對應": 6969,
			"意思": 6970,
			"本作": 6971,
			"婦女": 6972,
			"測量": 6973,
			"釋放": 6974,
			"一致": 6975,
			"同盟": 6976,
			"聲音": 6977,
			"成本": 6978,
			"年初": 6979,
			"聲稱": 6980,
			"那些": 6981,
			"薩爾": 6982,
			"花園": 6983,
			"合約": 6984,
			"周圍": 6985,
			"領導人": 6986,
			"馬爾": 6987,
			"無人": 6988,
			"組建": 6989,
			"投降": 6990,
			"科學院": 6991,
			"派出": 6992,
			"監督": 6993,
			"檢查": 6994,
			"帶領": 6995,
			"爆炸": 6996,
			"一方面": 6997,
			"優秀": 6998,
			"價格": 6999,
			"丹麥": 7000,
			"司馬": 7001,
			"豐富": 7002,
			"兩次": 7003,
			"氣旋": 7004,
			"認識": 7005,
			"麥克": 7006,
			"黃金": 7007,
			"預計": 7008,
			"任職": 7009,
			"球場": 7010,
			"強大": 7011,
			"澤東": 7012,
			"一天": 7013,
			"知識": 7014,
			"扮演": 7015,
			"學家": 7016,
			"之子": 7017,
			"牠們": 7018,
			"有著": 7019,
			"電話": 7020,
			"第八": 7021,
			"開啟": 7022,
			"村莊": 7023,
			"比利": 7024,
			"芬蘭": 7025,
			"弟弟": 7026,
			"知縣": 7027,
			"辦理": 7028,
			"起義": 7029,
			"具體": 7030,
			"深度": 7031,
			"一份": 7032,
			"首先": 7033,
			"薩斯": 7034,
			"游泳": 7035,
			"羽毛球": 7036,
			"陸續": 7037,
			"隨即": 7038,
			"住民": 7039,
			"習性": 7040,
			"盛頓": 7041,
			"解散": 7042,
			"嘗試": 7043,
			"毛澤東": 7044,
			"大多": 7045,
			"例子": 7046,
			"太子": 7047,
			"馬拉": 7048,
			"莫斯科": 7049,
			"家的": 7050,
			"修建": 7051,
			"終於": 7052,
			"運用": 7053,
			"二人": 7054,
			"票房": 7055,
			"上市": 7056,
			"會員": 7057,
			"員工": 7058,
			"相信": 7059,
			"並以": 7060,
			"以色列": 7061,
			"分配": 7062,
			"空氣": 7063,
			"三世": 7064,
			"亨利": 7065,
			"資產": 7066,
			"此次": 7067,
			"食品": 7068,
			"經典": 7069,
			"難以": 7070,
			"驅逐": 7071,
			"參選": 7072,
			"丈夫": 7073,
			"華盛頓": 7074,
			"大獎": 7075,
			"印尼": 7076,
			"講述": 7077,
			"法案": 7078,
			"國中": 7079,
			"現實": 7080,
			"不到": 7081,
			"制定": 7082,
			"爾特": 7083,
			"出的": 7084,
			"穆斯": 7085,
			"辦事處": 7086,
			"廢除": 7087,
			"萬美元": 7088,
			"旅行": 7089,
			"基金會": 7090,
			"的決": 7091,
			"島嶼": 7092,
			"暴力": 7093,
			"上述": 7094,
			"克里": 7095,
			"億美元": 7096,
			"兼任": 7097,
			"緬甸": 7098,
			"優勢": 7099,
			"已有": 7100,
			"引入": 7101,
			"下午": 7102,
			"上下": 7103,
			"時段": 7104,
			"論文": 7105,
			"隊長": 7106,
			"由中": 7107,
			"天體": 7108,
			"升格": 7109,
			"保羅": 7110,
			"排行": 7111,
			"困難": 7112,
			"成長": 7113,
			"民政": 7114,
			"空中": 7115,
			"幹部": 7116,
			"各國": 7117,
			"意外": 7118,
			"巴爾": 7119,
			"帶有": 7120,
			"依然": 7121,
			"西蘭": 7122,
			"較大": 7123,
			"君主": 7124,
			"魚類": 7125,
			"地質": 7126,
			"依據": 7127,
			"巡迴": 7128,
			"老師": 7129,
			"乾隆": 7130,
			"尚書": 7131,
			"水庫": 7132,
			"西接": 7133,
			"保險": 7134,
			"危險": 7135,
			"態度": 7136,
			"戰士": 7137,
			"一所": 7138,
			"簽訂": 7139,
			"青島": 7140,
			"光緒": 7141,
			"典禮": 7142,
			"效能": 7143,
			"啟動": 7144,
			"供應": 7145,
			"轟炸": 7146,
			"意志": 7147,
			"展覽": 7148,
			"主辦": 7149,
			"站臺": 7150,
			"化合物": 7151,
			"註冊": 7152,
			"用作": 7153,
			"用途": 7154,
			"告訴": 7155,
			"斯洛": 7156,
			"會上": 7157,
			"殺害": 7158,
			"性格": 7159,
			"計算機": 7160,
			"一人": 7161,
			"七年": 7162,
			"性別": 7163,
			"本屬": 7164,
			"利益": 7165,
			"週期": 7166,
			"銅牌": 7167,
			"前面": 7168,
			"滿足": 7169,
			"免費": 7170,
			"而成": 7171,
			"身分": 7172,
			"推進": 7173,
			"未知": 7174,
			"由此": 7175,
			"第二次世界大戰": 7176,
			"開展": 7177,
			"一枚": 7178,
			"最近": 7179,
			"相互": 7180,
			"事情": 7181,
			"加州": 7182,
			"火山": 7183,
			"張專輯": 7184,
			"原住民": 7185,
			"挪威": 7186,
			"自殺": 7187,
			"作業": 7188,
			"當天": 7189,
			"消費": 7190,
			"農村": 7191,
			"興趣": 7192,
			"助理": 7193,
			"軍團": 7194,
			"打算": 7195,
			"關鍵": 7196,
			"以為": 7197,
			"遇到": 7198,
			"升級": 7199,
			"考試": 7200,
			"本線": 7201,
			"貴州": 7202,
			"北京市": 7203,
			"機制": 7204,
			"本科": 7205,
			"波斯": 7206,
			"雷斯": 7207,
			"城區": 7208,
			"分割": 7209,
			"綠色": 7210,
			"內戰": 7211,
			"手機": 7212,
			"大眾": 7213,
			"突破": 7214,
			"紐西蘭": 7215,
			"立即": 7216,
			"比利時": 7217,
			"婚姻": 7218,
			"獎項": 7219,
			"同學": 7220,
			"公安": 7221,
			"出戰": 7222,
			"質疑": 7223,
			"研發": 7224,
			"似乎": 7225,
			"盧瓦爾省": 7226,
			"進步": 7227,
			"編劇": 7228,
			"哥倫比亞": 7229,
			"農民": 7230,
			"在於": 7231,
			"特點": 7232,
			"圍繞": 7233,
			"堅持": 7234,
			"那麼": 7235,
			"藍色": 7236,
			"生成": 7237,
			"也曾": 7238,
			"城堡": 7239,
			"十五": 7240,
			"十三": 7241,
			"兩者": 7242,
			"派遣": 7243,
			"石油": 7244,
			"保守": 7245,
			"平原": 7246,
			"標題": 7247,
			"寫作": 7248,
			"方言": 7249,
			"拆除": 7250,
			"走向": 7251,
			"漢族": 7252,
			"只要": 7253,
			"支流": 7254,
			"維護": 7255,
			"消失": 7256,
			"國軍": 7257,
			"延長": 7258,
			"符合": 7259,
			"浙江省": 7260,
			"長江": 7261,
			"互相": 7262,
			"十九": 7263,
			"利斯": 7264,
			"條目": 7265,
			"鄰近": 7266,
			"濱海": 7267,
			"佔地": 7268,
			"接收": 7269,
			"指示": 7270,
			"殖民地": 7271,
			"建築物": 7272,
			"離子": 7273,
			"法官": 7274,
			"銀牌": 7275,
			"王子": 7276,
			"主力": 7277,
			"實驗室": 7278,
			"等級": 7279,
			"射擊": 7280,
			"的信": 7281,
			"地圖": 7282,
			"登上": 7283,
			"符號": 7284,
			"緊急": 7285,
			"至於": 7286,
			"往往": 7287,
			"大橋": 7288,
			"玻璃": 7289,
			"化石": 7290,
			"現今": 7291,
			"百萬": 7292,
			"軍官": 7293,
			"交換": 7294,
			"比如": 7295,
			"捷克": 7296,
			"阿根": 7297,
			"復興": 7298,
			"劇集": 7299,
			"資本": 7300,
			"公爵": 7301,
			"原名": 7302,
			"拉丁": 7303,
			"檢察": 7304,
			"停車": 7305,
			"身上": 7306,
			"阿根廷": 7307,
			"另有": 7308,
			"談判": 7309,
			"遼寧": 7310,
			"克萊": 7311,
			"傳媒": 7312,
			"房屋": 7313,
			"碼頭": 7314,
			"電車": 7315,
			"推廣": 7316,
			"人和": 7317,
			"服役": 7318,
			"定居": 7319,
			"網球": 7320,
			"轉向": 7321,
			"猶太人": 7322,
			"自行": 7323,
			"僅有": 7324,
			"改制": 7325,
			"各自": 7326,
			"同性": 7327,
			"颶風": 7328,
			"山東省": 7329,
			"年級": 7330,
			"逮捕": 7331,
			"演奏": 7332,
			"人權": 7333,
			"證實": 7334,
			"發動機": 7335,
			"呈現": 7336,
			"次年": 7337,
			"成都": 7338,
			"親自": 7339,
			"此站": 7340,
			"維埃": 7341,
			"長官": 7342,
			"栽培": 7343,
			"校區": 7344,
			"錄音": 7345,
			"河畔": 7346,
			"審查": 7347,
			"納粹": 7348,
			"令人": 7349,
			"首個": 7350,
			"修復": 7351,
			"市委": 7352,
			"明確": 7353,
			"轉換": 7354,
			"島上": 7355,
			"穆斯林": 7356,
			"採訪": 7357,
			"收到": 7358,
			"個性": 7359,
			"主場": 7360,
			"財產": 7361,
			"十四": 7362,
			"淘汰": 7363,
			"天然": 7364,
			"大幅": 7365,
			"出場": 7366,
			"反映": 7367,
			"保障": 7368,
			"這部": 7369,
			"陷入": 7370,
			"這場": 7371,
			"卡斯": 7372,
			"整合": 7373,
			"選為": 7374,
			"科學家": 7375,
			"釐米": 7376,
			"並與": 7377,
			"指控": 7378,
			"特里": 7379,
			"山峰": 7380,
			"長的": 7381,
			"偶像": 7382,
			"洛杉": 7383,
			"沿革": 7384,
			"現有": 7385,
			"所謂": 7386,
			"黨委": 7387,
			"特性": 7388,
			"許可": 7389,
			"納省": 7390,
			"考古": 7391,
			"洛杉磯": 7392,
			"妹妹": 7393,
			"附屬": 7394,
			"校園": 7395,
			"傑克": 7396,
			"地名": 7397,
			"良好": 7398,
			"今天": 7399,
			"鄉試": 7400,
			"立方": 7401,
			"黃色": 7402,
			"學士": 7403,
			"獨特": 7404,
			"接著": 7405,
			"北海": 7406,
			"各個": 7407,
			"收集": 7408,
			"概要": 7409,
			"古典": 7410,
			"以北": 7411,
			"常務": 7412,
			"第九": 7413,
			"障礙": 7414,
			"兩國": 7415,
			"分離": 7416,
			"馬斯": 7417,
			"靠近": 7418,
			"柴油": 7419,
			"原有": 7420,
			"斯省": 7421,
			"車隊": 7422,
			"氣壓": 7423,
			"波羅": 7424,
			"下令": 7425,
			"弗朗": 7426,
			"能源": 7427,
			"月球": 7428,
			"場所": 7429,
			"監察": 7430,
			"學科": 7431,
			"活躍": 7432,
			"克里斯": 7433,
			"大選": 7434,
			"他人": 7435,
			"南極洲": 7436,
			"違反": 7437,
			"劇場": 7438,
			"吉林": 7439,
			"羅馬尼亞": 7440,
			"修正": 7441,
			"爭取": 7442,
			"黨員": 7443,
			"條例": 7444,
			"萊茵": 7445,
			"主唱": 7446,
			"利福": 7447,
			"發明": 7448,
			"吸收": 7449,
			"書籍": 7450,
			"曾於": 7451,
			"邊境": 7452,
			"劇本": 7453,
			"領事": 7454,
			"西斯": 7455,
			"裝飾": 7456,
			"前後": 7457,
			"種子": 7458,
			"中有": 7459,
			"出演": 7460,
			"六年": 7461,
			"理解": 7462,
			"工程師": 7463,
			"分裂": 7464,
			"收視": 7465,
			"拿下": 7466,
			"後續": 7467,
			"耶穌": 7468,
			"兩名": 7469,
			"稱號": 7470,
			"商品": 7471,
			"港口": 7472,
			"日下": 7473,
			"收藏": 7474,
			"地帶": 7475,
			"每天": 7476,
			"可用": 7477,
			"特有": 7478,
			"三人": 7479,
			"職位": 7480,
			"完工": 7481,
			"將領": 7482,
			"以南": 7483,
			"錄影": 7484,
			"懷疑": 7485,
			"成年": 7486,
			"四川省": 7487,
			"尼西亞": 7488,
			"江蘇省": 7489,
			"立場": 7490,
			"正面": 7491,
			"南非": 7492,
			"接替": 7493,
			"遊行": 7494,
			"得名": 7495,
			"含有": 7496,
			"留在": 7497,
			"出版社": 7498,
			"阿爾卑": 7499,
			"斯塔": 7500,
			"積分": 7501,
			"手段": 7502,
			"親王": 7503,
			"勳章": 7504,
			"連任": 7505,
			"從此": 7506,
			"日出": 7507,
			"支付": 7508,
			"無線": 7509,
			"評估": 7510,
			"凌晨": 7511,
			"形目": 7512,
			"卡拉": 7513,
			"發言": 7514,
			"當日": 7515,
			"簽約": 7516,
			"人次": 7517,
			"稱呼": 7518,
			"哥哥": 7519,
			"明星": 7520,
			"自稱": 7521,
			"這座": 7522,
			"布拉": 7523,
			"方便": 7524,
			"家中": 7525,
			"授權": 7526,
			"包圍": 7527,
			"以此": 7528,
			"她們": 7529,
			"甘肅": 7530,
			"銷量": 7531,
			"御史": 7532,
			"裡的": 7533,
			"舞蹈": 7534,
			"兩位": 7535,
			"商人": 7536,
			"鼓勵": 7537,
			"席位": 7538,
			"文藝": 7539,
			"競選": 7540,
			"無論": 7541,
			"稱作": 7542,
			"暫時": 7543,
			"被捕": 7544,
			"晉級": 7545,
			"一款": 7546,
			"導彈": 7547,
			"大師": 7548,
			"河道": 7549,
			"生存": 7550,
			"今日": 7551,
			"委託": 7552,
			"引數": 7553,
			"大阪": 7554,
			"加拉": 7555,
			"出發": 7556,
			"人為": 7557,
			"培養": 7558,
			"中期": 7559,
			"聚落": 7560,
			"別的": 7561,
			"阿里": 7562,
			"本屆": 7563,
			"巴斯": 7564,
			"杭州": 7565,
			"冠狀": 7566,
			"一點": 7567,
			"星系": 7568,
			"確保": 7569,
			"跟隨": 7570,
			"必要": 7571,
			"棒球": 7572,
			"亞軍": 7573,
			"長子": 7574,
			"龍江": 7575,
			"洛克": 7576,
			"由人": 7577,
			"羅德": 7578,
			"警告": 7579,
			"主體": 7580,
			"首播": 7581,
			"種植": 7582,
			"喜劇": 7583,
			"抵抗": 7584,
			"審判": 7585,
			"天皇": 7586,
			"朝廷": 7587,
			"海上": 7588,
			"劇院": 7589,
			"兩側": 7590,
			"首相": 7591,
			"越來": 7592,
			"特區": 7593,
			"神話": 7594,
			"刺史": 7595,
			"五個": 7596,
			"電氣": 7597,
			"發揮": 7598,
			"上升": 7599,
			"成就": 7600,
			"增強": 7601,
			"監獄": 7602,
			"成了": 7603,
			"商場": 7604,
			"頒獎": 7605,
			"越來越": 7606,
			"書院": 7607,
			"種類": 7608,
			"最低": 7609,
			"不要": 7610,
			"愛情": 7611,
			"摧毀": 7612,
			"自我": 7613,
			"教育部": 7614,
			"常委": 7615,
			"認定": 7616,
			"開幕": 7617,
			"回歸": 7618,
			"人工": 7619,
			"博士學位": 7620,
			"一張": 7621,
			"出售": 7622,
			"內地": 7623,
			"長沙": 7624,
			"汙染": 7625,
			"食用": 7626,
			"同名": 7627,
			"主持人": 7628,
			"外交部": 7629,
			"特拉": 7630,
			"布萊": 7631,
			"互動": 7632,
			"享年": 7633,
			"省委": 7634,
			"餐廳": 7635,
			"合法": 7636,
			"騎兵": 7637,
			"典型": 7638,
			"提及": 7639,
			"天文學": 7640,
			"天下": 7641,
			"聞名": 7642,
			"順利": 7643,
			"撰寫": 7644,
			"形狀": 7645,
			"貨幣": 7646,
			"蘇丹": 7647,
			"北美": 7648,
			"模擬": 7649,
			"接任": 7650,
			"呼籲": 7651,
			"通知": 7652,
			"隕石": 7653,
			"嚴格": 7654,
			"執政": 7655,
			"想要": 7656,
			"歐盟": 7657,
			"向東": 7658,
			"單元": 7659,
			"列出": 7660,
			"高達": 7661,
			"這項": 7662,
			"田徑": 7663,
			"區間": 7664,
			"身高": 7665,
			"大家": 7666,
			"直徑": 7667,
			"愛德": 7668,
			"代表團": 7669,
			"一隻": 7670,
			"辭職": 7671,
			"貨物": 7672,
			"可見": 7673,
			"文明": 7674,
			"搜尋": 7675,
			"頒發": 7676,
			"言論": 7677,
			"名人": 7678,
			"天堂": 7679,
			"此事": 7680,
			"該校": 7681,
			"藝術家": 7682,
			"長達": 7683,
			"唐朝": 7684,
			"分支": 7685,
			"集合": 7686,
			"天文臺": 7687,
			"途中": 7688,
			"法庭": 7689,
			"並由": 7690,
			"康熙": 7691,
			"專用": 7692,
			"新竹": 7693,
			"火星": 7694,
			"冒險": 7695,
			"轄區": 7696,
			"培訓": 7697,
			"萬曆": 7698,
			"步槍": 7699,
			"爵士": 7700,
			"公交": 7701,
			"爾多": 7702,
			"魯斯": 7703,
			"鬥爭": 7704,
			"費用": 7705,
			"工會": 7706,
			"每日": 7707,
			"月初": 7708,
			"戰隊": 7709,
			"演藝": 7710,
			"源自": 7711,
			"日後": 7712,
			"創新": 7713,
			"非法": 7714,
			"屬的": 7715,
			"意為": 7716,
			"證券": 7717,
			"奧爾": 7718,
			"直播": 7719,
			"登記": 7720,
			"並被": 7721,
			"吉爾": 7722,
			"擅長": 7723,
			"足夠": 7724,
			"透露": 7725,
			"另一方面": 7726,
			"咖啡": 7727,
			"演化": 7728,
			"貨運": 7729,
			"這首": 7730,
			"詹姆斯": 7731,
			"黑龍江": 7732,
			"協調": 7733,
			"網際": 7734,
			"巴基": 7735,
			"在世": 7736,
			"達爾": 7737,
			"福建省": 7738,
			"群眾": 7739,
			"規範": 7740,
			"一屆": 7741,
			"劃分": 7742,
			"推薦": 7743,
			"配置": 7744,
			"蘋果": 7745,
			"尼克": 7746,
			"地形": 7747,
			"宣稱": 7748,
			"傾向": 7749,
			"戰場": 7750,
			"蒙特": 7751,
			"熱帶氣旋": 7752,
			"充滿": 7753,
			"為首": 7754,
			"尼爾": 7755,
			"網際網路": 7756,
			"市中心": 7757,
			"常常": 7758,
			"桃園": 7759,
			"輔助": 7760,
			"隔離": 7761,
			"國際機場": 7762,
			"援助": 7763,
			"覺得": 7764,
			"維多": 7765,
			"南市": 7766,
			"湖泊": 7767,
			"慶祝": 7768,
			"改建": 7769,
			"通用": 7770,
			"原先": 7771,
			"早上": 7772,
			"之戰": 7773,
			"意味": 7774,
			"回憶": 7775,
			"領地": 7776,
			"一詞": 7777,
			"主權": 7778,
			"感覺": 7779,
			"下列": 7780,
			"成的": 7781,
			"高於": 7782,
			"安東": 7783,
			"超越": 7784,
			"公會": 7785,
			"撤退": 7786,
			"升任": 7787,
			"引用": 7788,
			"一半": 7789,
			"場地": 7790,
			"曾祖": 7791,
			"商店": 7792,
			"山區": 7793,
			"蘇州": 7794,
			"理由": 7795,
			"救援": 7796,
			"重視": 7797,
			"金山": 7798,
			"聚集": 7799,
			"融合": 7800,
			"以東": 7801,
			"轉變": 7802,
			"傳教": 7803,
			"行業": 7804,
			"累計": 7805,
			"已知": 7806,
			"連載": 7807,
			"理想": 7808,
			"影視": 7809,
			"巴基斯坦": 7810,
			"三國": 7811,
			"女主角": 7812,
			"邊緣": 7813,
			"輸出": 7814,
			"形容": 7815,
			"短暫": 7816,
			"原型": 7817,
			"適合": 7818,
			"改稱": 7819,
			"報紙": 7820,
			"架構": 7821,
			"強度": 7822,
			"公斤": 7823,
			"一間": 7824,
			"創始": 7825,
			"警報": 7826,
			"龍省": 7827,
			"即將": 7828,
			"兩岸": 7829,
			"大部": 7830,
			"向西": 7831,
			"塞爾維亞": 7832,
			"擔心": 7833,
			"頻率": 7834,
			"任教": 7835,
			"紅軍": 7836,
			"大革命": 7837,
			"嘉義": 7838,
			"事實上": 7839,
			"平衡": 7840,
			"指令": 7841,
			"謝爾": 7842,
			"遊客": 7843,
			"總會": 7844,
			"詩人": 7845,
			"氣體": 7846,
			"一首": 7847,
			"一代": 7848,
			"中將": 7849,
			"主動": 7850,
			"脫離": 7851,
			"軍人": 7852,
			"古老": 7853,
			"議席": 7854,
			"三甲": 7855,
			"顯著": 7856,
			"營業": 7857,
			"收費": 7858,
			"遭受": 7859,
			"研究院": 7860,
			"以西": 7861,
			"打破": 7862,
			"曾是": 7863,
			"願意": 7864,
			"理工": 7865,
			"輻射": 7866,
			"企圖": 7867,
			"探險": 7868,
			"競賽": 7869,
			"學系": 7870,
			"市政": 7871,
			"人生": 7872,
			"常用": 7873,
			"撞擊": 7874,
			"股份有限公司": 7875,
			"所在地": 7876,
			"任期": 7877,
			"尋求": 7878,
			"想法": 7879,
			"策略": 7880,
			"人民幣": 7881,
			"場景": 7882,
			"上陣": 7883,
			"潛艇": 7884,
			"引種": 7885,
			"青少年": 7886,
			"擴張": 7887,
			"神秘": 7888,
			"一方": 7889,
			"效應": 7890,
			"最好": 7891,
			"換行": 7892,
			"總裁": 7893,
			"演算": 7894,
			"搖滾": 7895,
			"女王": 7896,
			"手術": 7897,
			"歌詞": 7898,
			"計程": 7899,
			"選出": 7900,
			"大氣": 7901,
			"巴拉": 7902,
			"終點": 7903,
			"預算": 7904,
			"牽引": 7905,
			"屠殺": 7906,
			"疫苗": 7907,
			"詳細": 7908,
			"適用": 7909,
			"四十": 7910,
			"經由": 7911,
			"回國": 7912,
			"順序": 7913,
			"消防": 7914,
			"西側": 7915,
			"英軍": 7916,
			"大使館": 7917,
			"瓦爾": 7918,
			"路段": 7919,
			"二級": 7920,
			"重量": 7921,
			"德爾": 7922,
			"改進": 7923,
			"國道": 7924,
			"停靠": 7925,
			"漢語": 7926,
			"暫停": 7927,
			"觀光": 7928,
			"替代": 7929,
			"民進": 7930,
			"近代": 7931,
			"常規": 7932,
			"本片": 7933,
			"伊拉克": 7934,
			"追溯": 7935,
			"月底": 7936,
			"施工": 7937,
			"腳踏": 7938,
			"遭遇": 7939,
			"突出": 7940,
			"時報": 7941,
			"茲省": 7942,
			"保證": 7943,
			"此地": 7944,
			"區分": 7945,
			"力的": 7946,
			"被告": 7947,
			"介面": 7948,
			"判決": 7949,
			"隊員": 7950,
			"落成": 7951,
			"教宗": 7952,
			"配備": 7953,
			"八年": 7954,
			"晉升": 7955,
			"解除": 7956,
			"有的": 7957,
			"面臨": 7958,
			"不應": 7959,
			"誕生": 7960,
			"設計師": 7961,
			"製作人": 7962,
			"衛視": 7963,
			"行人": 7964,
			"傳送": 7965,
			"寧波": 7966,
			"外觀": 7967,
			"粒子": 7968,
			"集體": 7969,
			"圓形": 7970,
			"燃料": 7971,
			"科夫": 7972,
			"首席": 7973,
			"天氣": 7974,
			"傷害": 7975,
			"選秀": 7976,
			"天使": 7977,
			"少將": 7978,
			"客戶": 7979,
			"同日": 7980,
			"道德": 7981,
			"主人": 7982,
			"好友": 7983,
			"省道": 7984,
			"劃歸": 7985,
			"很少": 7986,
			"研究生": 7987,
			"京都": 7988,
			"進士出身": 7989,
			"永久": 7990,
			"影像": 7991,
			"東側": 7992,
			"戰鬥機": 7993,
			"徹底": 7994,
			"伯爵": 7995,
			"假設": 7996,
			"型號": 7997,
			"角度": 7998,
			"首位": 7999
		},
		"merges": [
			[
				"一",
				"個"
			],
			[
				"中",
				"國"
			],
			[
				"位",
				"於"
			],
			[
				"美",
				"國"
			],
			[
				"人",
				"口"
			],
			[
				"使",
				"用"
			],
			[
				"大",
				"學"
			],
			[
				"政",
				"府"
			],
			[
				"公",
				"司"
			],
			[
				"可",
				"以"
			],
			[
				"成",
				"為"
			],
			[
				"開",
				"始"
			],
			[
				"國",
				"家"
			],
			[
				"地",
				"區"
			],
			[
				"公",
				"里"
			],
			[
				"香",
				"港"
			],
			[
				"包",
				"括"
			],
			[
				"第",
				"一"
			],
			[
				"進",
				"行"
			],
			[
				"以",
				"及"
			],
			[
				"其",
				"中"
			],
			[
				"臺",
				"灣"
			],
			[
				"平",
				"方"
			],
			[
				"人",
				"民"
			],
			[
				"世",
				"界"
			],
			[
				"研",
				"究"
			],
			[
				"日",
				"本"
			],
			[
				"沒",
				"有"
			],
			[
				"面",
				"積"
			],
			[
				"主",
				"要"
			],
			[
				"部",
				"分"
			],
			[
				"獲",
				"得"
			],
			[
				"他",
				"們"
			],
			[
				"行",
				"政"
			],
			[
				"委",
				"員"
			],
			[
				"運",
				"動"
			],
			[
				"代",
				"表"
			],
			[
				"政",
				"治"
			],
			[
				"認",
				"為"
			],
			[
				"由",
				"於"
			],
			[
				"法",
				"國"
			],
			[
				"第",
				"二"
			],
			[
				"歷",
				"史"
			],
			[
				"因",
				"為"
			],
			[
				"透",
				"過"
			],
			[
				"工",
				"作"
			],
			[
				"因",
				"此"
			],
			[
				"自",
				"己"
			],
			[
				"其",
				"他"
			],
			[
				"之",
				"後"
			],
			[
				"電",
				"影"
			],
			[
				"中",
				"華"
			],
			[
				"同",
				"時"
			],
			[
				"擔",
				"任"
			],
			[
				"國",
				"際"
			],
			[
				"作",
				"為"
			],
			[
				"中",
				"心"
			],
			[
				"車",
				"站"
			],
			[
				"系",
				"統"
			],
			[
				"之",
				"一"
			],
			[
				"電",
				"視"
			],
			[
				"發",
				"展"
			],
			[
				"中",
				"的"
			],
			[
				"平方",
				"公里"
			],
			[
				"共",
				"和"
			],
			[
				"參",
				"加"
			],
			[
				"可",
				"能"
			],
			[
				"英",
				"國"
			],
			[
				"設",
				"計"
			],
			[
				"當",
				"時"
			],
			[
				"發",
				"現"
			],
			[
				"表",
				"示"
			],
			[
				"遊",
				"戲"
			],
			[
				"市",
				"鎮"
			],
			[
				"建",
				"築"
			],
			[
				"社",
				"會"
			],
			[
				"不",
				"同"
			],
			[
				"比",
				"賽"
			],
			[
				"一",
				"種"
			],
			[
				"時",
				"間"
			],
			[
				"根",
				"據"
			],
			[
				"成",
				"立"
			],
			[
				"中",
				"央"
			],
			[
				"組",
				"織"
			],
			[
				"影",
				"響"
			],
			[
				"共和",
				"國"
			],
			[
				"音",
				"樂"
			],
			[
				"期",
				"間"
			],
			[
				"委員",
				"會"
			],
			[
				"鐵",
				"路"
			],
			[
				"文",
				"化"
			],
			[
				"最",
				"後"
			],
			[
				"這",
				"些"
			],
			[
				"負",
				"責"
			],
			[
				"主",
				"義"
			],
			[
				"學",
				"院"
			],
			[
				"作",
				"品"
			],
			[
				"所",
				"有"
			],
			[
				"經",
				"濟"
			],
			[
				"管",
				"理"
			],
			[
				"活",
				"動"
			],
			[
				"出",
				"現"
			],
			[
				"正",
				"式"
			],
			[
				"這",
				"個"
			],
			[
				"後",
				"來"
			],
			[
				"提",
				"供"
			],
			[
				"世",
				"紀"
			],
			[
				"年",
				"代"
			],
			[
				"也",
				"是"
			],
			[
				"發",
				"生"
			],
			[
				"單",
				"位"
			],
			[
				"一",
				"些"
			],
			[
				"全",
				"國"
			],
			[
				"以",
				"下"
			],
			[
				"利",
				"亞"
			],
			[
				"屬",
				"於"
			],
			[
				"學",
				"校"
			],
			[
				"問",
				"題"
			],
			[
				"時",
				"期"
			],
			[
				"成",
				"員"
			],
			[
				"支",
				"援"
			],
			[
				"之",
				"間"
			],
			[
				"德",
				"國"
			],
			[
				"最",
				"終"
			],
			[
				"許",
				"多"
			],
			[
				"資",
				"料"
			],
			[
				"教",
				"育"
			],
			[
				"生",
				"活"
			],
			[
				"城",
				"市"
			],
			[
				"羅",
				"斯"
			],
			[
				"已",
				"經"
			],
			[
				"人",
				"物"
			],
			[
				"關",
				"係"
			],
			[
				"進",
				"入"
			],
			[
				"北",
				"京"
			],
			[
				"戰",
				"爭"
			],
			[
				"製",
				"作"
			],
			[
				"服",
				"務"
			],
			[
				"工",
				"程"
			],
			[
				"目",
				"前"
			],
			[
				"建",
				"立"
			],
			[
				"發",
				"行"
			],
			[
				"宣",
				"佈"
			],
			[
				"參",
				"與"
			],
			[
				"相",
				"關"
			],
			[
				"足",
				"球"
			],
			[
				"北",
				"部"
			],
			[
				"保",
				"護"
			],
			[
				"節",
				"目"
			],
			[
				"事",
				"件"
			],
			[
				"聯",
				"合"
			],
			[
				"加",
				"入"
			],
			[
				"計",
				"劃"
			],
			[
				"舉",
				"行"
			],
			[
				"兩",
				"個"
			],
			[
				"生",
				"平"
			],
			[
				"重",
				"要"
			],
			[
				"但",
				"是"
			],
			[
				"分",
				"佈"
			],
			[
				"決",
				"定"
			],
			[
				"技",
				"術"
			],
			[
				"擁",
				"有"
			],
			[
				"尼",
				"亞"
			],
			[
				"海",
				"拔"
			],
			[
				"學",
				"生"
			],
			[
				"雖",
				"然"
			],
			[
				"地",
				"方"
			],
			[
				"方",
				"面"
			],
			[
				"需",
				"要"
			],
			[
				"資",
				"訊"
			],
			[
				"冠",
				"軍"
			],
			[
				"並",
				"且"
			],
			[
				"同",
				"年"
			],
			[
				"系",
				"列"
			],
			[
				"俄",
				"羅斯"
			],
			[
				"民",
				"國"
			],
			[
				"專",
				"輯"
			],
			[
				"完",
				"成"
			],
			[
				"高",
				"度"
			],
			[
				"組",
				"成"
			],
			[
				"當",
				"地"
			],
			[
				"受",
				"到"
			],
			[
				"執",
				"行"
			],
			[
				"要",
				"求"
			],
			[
				"歐",
				"洲"
			],
			[
				"大",
				"陸"
			],
			[
				"下",
				"轄"
			],
			[
				"情",
				"況"
			],
			[
				"最",
				"高"
			],
			[
				"獨",
				"立"
			],
			[
				"分",
				"別"
			],
			[
				"成",
				"功"
			],
			[
				"自",
				"由"
			],
			[
				"上",
				"海"
			],
			[
				"一",
				"般"
			],
			[
				"方",
				"式"
			],
			[
				"藝",
				"術"
			],
			[
				"交",
				"通"
			],
			[
				"總",
				"統"
			],
			[
				"導",
				"致"
			],
			[
				"開",
				"發"
			],
			[
				"選",
				"舉"
			],
			[
				"行政",
				"區"
			],
			[
				"列",
				"車"
			],
			[
				"會",
				"議"
			],
			[
				"來",
				"自"
			],
			[
				"畢",
				"業"
			],
			[
				"科",
				"學"
			],
			[
				"前",
				"往"
			],
			[
				"人",
				"員"
			],
			[
				"密",
				"度"
			],
			[
				"一",
				"名"
			],
			[
				"印",
				"度"
			],
			[
				"然",
				"而"
			],
			[
				"第",
				"三"
			],
			[
				"專",
				"案"
			],
			[
				"國",
				"民"
			],
			[
				"得",
				"到"
			],
			[
				"地",
				"理"
			],
			[
				"產",
				"生"
			],
			[
				"物",
				"種"
			],
			[
				"合",
				"作"
			],
			[
				"設",
				"有"
			],
			[
				"集",
				"團"
			],
			[
				"存",
				"在"
			],
			[
				"個",
				"人"
			],
			[
				"所",
				"以"
			],
			[
				"聯",
				"盟"
			],
			[
				"控",
				"制"
			],
			[
				"結",
				"束"
			],
			[
				"最",
				"大"
			],
			[
				"通",
				"常"
			],
			[
				"提",
				"出"
			],
			[
				"故",
				"事"
			],
			[
				"特",
				"別"
			],
			[
				"就",
				"是"
			],
			[
				"無",
				"法"
			],
			[
				"具",
				"有"
			],
			[
				"球",
				"隊"
			],
			[
				"結",
				"構"
			],
			[
				"程",
				"式"
			],
			[
				"對",
				"於"
			],
			[
				"管",
				"轄"
			],
			[
				"這",
				"種"
			],
			[
				"聯",
				"賽"
			],
			[
				"民",
				"主"
			],
			[
				"生",
				"產"
			],
			[
				"不",
				"過"
			],
			[
				"角",
				"色"
			],
			[
				"結",
				"果"
			],
			[
				"父",
				"親"
			],
			[
				"出",
				"版"
			],
			[
				"主",
				"席"
			],
			[
				"形",
				"成"
			],
			[
				"例",
				"如"
			],
			[
				"網",
				"路"
			],
			[
				"西",
				"亞"
			],
			[
				"革",
				"命"
			],
			[
				"另",
				"外"
			],
			[
				"接",
				"受"
			],
			[
				"人口",
				"密度"
			],
			[
				"行",
				"星"
			],
			[
				"編",
				"碼"
			],
			[
				"南",
				"部"
			],
			[
				"部",
				"隊"
			],
			[
				"時",
				"代"
			],
			[
				"帝",
				"國"
			],
			[
				"行",
				"動"
			],
			[
				"機",
				"構"
			],
			[
				"採",
				"用"
			],
			[
				"一",
				"直"
			],
			[
				"繼",
				"續"
			],
			[
				"領",
				"導"
			],
			[
				"並",
				"在"
			],
			[
				"增",
				"加"
			],
			[
				"運動",
				"員"
			],
			[
				"取",
				"得"
			],
			[
				"女",
				"性"
			],
			[
				"只",
				"有"
			],
			[
				"新",
				"聞"
			],
			[
				"造",
				"成"
			],
			[
				"一",
				"位"
			],
			[
				"首",
				"次"
			],
			[
				"此",
				"外"
			],
			[
				"歌",
				"曲"
			],
			[
				"阿",
				"爾"
			],
			[
				"語",
				"言"
			],
			[
				"千",
				"米"
			],
			[
				"超",
				"過"
			],
			[
				"動",
				"物"
			],
			[
				"男",
				"子"
			],
			[
				"海",
				"軍"
			],
			[
				"這",
				"是"
			],
			[
				"傳",
				"統"
			],
			[
				"能",
				"力"
			],
			[
				"中",
				"共"
			],
			[
				"航",
				"空"
			],
			[
				"附",
				"近"
			],
			[
				"出",
				"生"
			],
			[
				"韓",
				"國"
			],
			[
				"經",
				"過"
			],
			[
				"一",
				"起"
			],
			[
				"羅",
				"馬"
			],
			[
				"軍",
				"事"
			],
			[
				"一",
				"次"
			],
			[
				"任",
				"何"
			],
			[
				"植",
				"物"
			],
			[
				"如",
				"果"
			],
			[
				"的",
				"是"
			],
			[
				"平",
				"均"
			],
			[
				"戰",
				"鬥"
			],
			[
				"調",
				"查"
			],
			[
				"克",
				"蘭"
			],
			[
				"省",
				"份"
			],
			[
				"非",
				"常"
			],
			[
				"一",
				"座"
			],
			[
				"過",
				"程"
			],
			[
				"內",
				"容"
			],
			[
				"重",
				"新"
			],
			[
				"有",
				"限"
			],
			[
				"命",
				"名"
			],
			[
				"現",
				"在"
			],
			[
				"數",
				"量"
			],
			[
				"媒",
				"體"
			],
			[
				"有",
				"關"
			],
			[
				"區",
				"域"
			],
			[
				"之",
				"前"
			],
			[
				"名",
				"稱"
			],
			[
				"機",
				"場"
			],
			[
				"主",
				"教"
			],
			[
				"建",
				"設"
			],
			[
				"主",
				"任"
			],
			[
				"書",
				"記"
			],
			[
				"不",
				"是"
			],
			[
				"工",
				"業"
			],
			[
				"除",
				"了"
			],
			[
				"隨",
				"後"
			],
			[
				"發",
				"表"
			],
			[
				"位",
				"置"
			],
			[
				"最",
				"佳"
			],
			[
				"共",
				"產"
			],
			[
				"紀",
				"念"
			],
			[
				"演",
				"員"
			],
			[
				"蘇",
				"聯"
			],
			[
				"議",
				"會"
			],
			[
				"女",
				"子"
			],
			[
				"我",
				"們"
			],
			[
				"安",
				"全"
			],
			[
				"現",
				"代"
			],
			[
				"義",
				"大"
			],
			[
				"標",
				"準"
			],
			[
				"範",
				"圍"
			],
			[
				"義大",
				"利"
			],
			[
				"環",
				"境"
			],
			[
				"大",
				"量"
			],
			[
				"反",
				"應"
			],
			[
				"中",
				"學"
			],
			[
				"攻",
				"擊"
			],
			[
				"還",
				"有"
			],
			[
				"中華",
				"民國"
			],
			[
				"中國",
				"大陸"
			],
			[
				"版",
				"本"
			],
			[
				"烏",
				"克蘭"
			],
			[
				"反",
				"對"
			],
			[
				"軍",
				"隊"
			],
			[
				"公",
				"園"
			],
			[
				"利",
				"用"
			],
			[
				"文",
				"學"
			],
			[
				"居",
				"民"
			],
			[
				"西",
				"南"
			],
			[
				"第",
				"四"
			],
			[
				"共",
				"有"
			],
			[
				"甚",
				"至"
			],
			[
				"創",
				"作"
			],
			[
				"賽",
				"事"
			],
			[
				"該",
				"國"
			],
			[
				"教",
				"授"
			],
			[
				"直",
				"接"
			],
			[
				"第",
				"十"
			],
			[
				"舉",
				"辦"
			],
			[
				"選",
				"區"
			],
			[
				"西",
				"班"
			],
			[
				"完",
				"全"
			],
			[
				"接",
				"壤"
			],
			[
				"行政區",
				"劃"
			],
			[
				"職",
				"業"
			],
			[
				"斯",
				"特"
			],
			[
				"生",
				"物"
			],
			[
				"平方",
				"千米"
			],
			[
				"行",
				"為"
			],
			[
				"協",
				"會"
			],
			[
				"指",
				"揮"
			],
			[
				"自",
				"治"
			],
			[
				"方",
				"法"
			],
			[
				"動",
				"畫"
			],
			[
				"推",
				"出"
			],
			[
				"用",
				"於"
			],
			[
				"二",
				"十"
			],
			[
				"裝",
				"置"
			],
			[
				"小",
				"說"
			],
			[
				"人",
				"類"
			],
			[
				"民",
				"族"
			],
			[
				"選",
				"擇"
			],
			[
				"所",
				"屬"
			],
			[
				"必",
				"須"
			],
			[
				"設",
				"定"
			],
			[
				"格",
				"蘭"
			],
			[
				"企",
				"業"
			],
			[
				"熱",
				"帶"
			],
			[
				"小",
				"時"
			],
			[
				"共",
				"同"
			],
			[
				"直",
				"到"
			],
			[
				"距",
				"離"
			],
			[
				"處",
				"理"
			],
			[
				"法",
				"院"
			],
			[
				"西班",
				"牙"
			],
			[
				"生",
				"涯"
			],
			[
				"大",
				"會"
			],
			[
				"形",
				"式"
			],
			[
				"再",
				"次"
			],
			[
				"公",
				"路"
			],
			[
				"議",
				"員"
			],
			[
				"公",
				"開"
			],
			[
				"設",
				"立"
			],
			[
				"顯",
				"示"
			],
			[
				"於",
				"是"
			],
			[
				"多",
				"數"
			],
			[
				"以",
				"來"
			],
			[
				"電",
				"子"
			],
			[
				"小",
				"行星"
			],
			[
				"著",
				"名"
			],
			[
				"演",
				"出"
			],
			[
				"希",
				"望"
			],
			[
				"學",
				"習"
			],
			[
				"聯",
				"邦"
			],
			[
				"家",
				"庭"
			],
			[
				"市",
				"場"
			],
			[
				"關",
				"於"
			],
			[
				"釋",
				"出"
			],
			[
				"解",
				"放"
			],
			[
				"報",
				"告"
			],
			[
				"銀",
				"行"
			],
			[
				"自",
				"然"
			],
			[
				"一",
				"年"
			],
			[
				"體",
				"育"
			],
			[
				"一",
				"部分"
			],
			[
				"部",
				"長"
			],
			[
				"醫",
				"院"
			],
			[
				"時",
				"的"
			],
			[
				"隨",
				"著"
			],
			[
				"包",
				"含"
			],
			[
				"離",
				"開"
			],
			[
				"亞",
				"洲"
			],
			[
				"基",
				"本"
			],
			[
				"東",
				"北"
			],
			[
				"團",
				"體"
			],
			[
				"三",
				"個"
			],
			[
				"家",
				"族"
			],
			[
				"不",
				"能"
			],
			[
				"文",
				"物"
			],
			[
				"製",
				"造"
			],
			[
				"政",
				"策"
			],
			[
				"播",
				"出"
			],
			[
				"功",
				"能"
			],
			[
				"大",
				"區"
			],
			[
				"路",
				"線"
			],
			[
				"曾",
				"經"
			],
			[
				"能",
				"夠"
			],
			[
				"一",
				"樣"
			],
			[
				"理",
				"論"
			],
			[
				"法",
				"律"
			],
			[
				"基",
				"礎"
			],
			[
				"它",
				"們"
			],
			[
				"死",
				"亡"
			],
			[
				"廣",
				"東"
			],
			[
				"任",
				"務"
			],
			[
				"為",
				"人"
			],
			[
				"美",
				"元"
			],
			[
				"而",
				"且"
			],
			[
				"太",
				"陽"
			],
			[
				"改",
				"為"
			],
			[
				"嚴",
				"重"
			],
			[
				"西",
				"部"
			],
			[
				"紀",
				"錄"
			],
			[
				"年",
				"間"
			],
			[
				"決",
				"賽"
			],
			[
				"當",
				"中"
			],
			[
				"空",
				"間"
			],
			[
				"月",
				"臺"
			],
			[
				"共產",
				"黨"
			],
			[
				"各",
				"種"
			],
			[
				"社",
				"群"
			],
			[
				"影",
				"片"
			],
			[
				"類",
				"似"
			],
			[
				"作",
				"用"
			],
			[
				"將",
				"軍"
			],
			[
				"巴",
				"士"
			],
			[
				"達",
				"到"
			],
			[
				"拍",
				"攝"
			],
			[
				"相",
				"當"
			],
			[
				"唯",
				"一"
			],
			[
				"早",
				"期"
			],
			[
				"運動",
				"會"
			],
			[
				"原",
				"因"
			],
			[
				"應",
				"用"
			],
			[
				"有限",
				"公司"
			],
			[
				"官",
				"方"
			],
			[
				"統",
				"治"
			],
			[
				"街",
				"道"
			],
			[
				"實",
				"際"
			],
			[
				"表",
				"現"
			],
			[
				"公",
				"共"
			],
			[
				"母",
				"親"
			],
			[
				"模",
				"式"
			],
			[
				"主",
				"持"
			],
			[
				"以",
				"上"
			],
			[
				"等",
				"人"
			],
			[
				"拿",
				"大"
			],
			[
				"全",
				"球"
			],
			[
				"商",
				"業"
			],
			[
				"最",
				"初"
			],
			[
				"專",
				"業"
			],
			[
				"人",
				"士"
			],
			[
				"加",
				"拿大"
			],
			[
				"第一",
				"次"
			],
			[
				"擴",
				"充"
			],
			[
				"其",
				"後"
			],
			[
				"規",
				"模"
			],
			[
				"浙",
				"江"
			],
			[
				"廣",
				"播"
			],
			[
				"產",
				"品"
			],
			[
				"時",
				"候"
			],
			[
				"儘",
				"管"
			],
			[
				"計",
				"算"
			],
			[
				"廣",
				"州"
			],
			[
				"當",
				"選"
			],
			[
				"博",
				"物"
			],
			[
				"東",
				"南"
			],
			[
				"連",
				"線"
			],
			[
				"爾",
				"省"
			],
			[
				"描",
				"述"
			],
			[
				"朝",
				"鮮"
			],
			[
				"化",
				"學"
			],
			[
				"恢",
				"復"
			],
			[
				"去",
				"世"
			],
			[
				"兩",
				"人"
			],
			[
				"很",
				"多"
			],
			[
				"太",
				"平"
			],
			[
				"使",
				"得"
			],
			[
				"宗",
				"教"
			],
			[
				"設",
				"施"
			],
			[
				"等",
				"地"
			],
			[
				"外",
				"交"
			],
			[
				"山",
				"東"
			],
			[
				"號",
				"線"
			],
			[
				"不",
				"會"
			],
			[
				"變",
				"化"
			],
			[
				"青",
				"年"
			],
			[
				"斯",
				"坦"
			],
			[
				"事",
				"務"
			],
			[
				"主",
				"題"
			],
			[
				"公",
				"佈"
			],
			[
				"擊",
				"敗"
			],
			[
				"阿",
				"拉"
			],
			[
				"仍",
				"然"
			],
			[
				"大",
				"部分"
			],
			[
				"幫",
				"助"
			],
			[
				"賽",
				"季"
			],
			[
				"演",
				"唱"
			],
			[
				"套",
				"件"
			],
			[
				"軌",
				"道"
			],
			[
				"訓",
				"練"
			],
			[
				"目",
				"標"
			],
			[
				"東",
				"京"
			],
			[
				"武",
				"器"
			],
			[
				"國",
				"王"
			],
			[
				"逐",
				"漸"
			],
			[
				"開",
				"放"
			],
			[
				"奧",
				"運"
			],
			[
				"持",
				"續"
			],
			[
				"澳",
				"門"
			],
			[
				"男",
				"性"
			],
			[
				"這",
				"樣"
			],
			[
				"馬",
				"來"
			],
			[
				"道",
				"路"
			],
			[
				"博",
				"士"
			],
			[
				"單",
				"曲"
			],
			[
				"發",
				"動"
			],
			[
				"一",
				"條"
			],
			[
				"兒",
				"子"
			],
			[
				"總",
				"人口"
			],
			[
				"協",
				"助"
			],
			[
				"地",
				"下"
			],
			[
				"合",
				"併"
			],
			[
				"司",
				"令"
			],
			[
				"主",
				"角"
			],
			[
				"則",
				"是"
			],
			[
				"排",
				"名"
			],
			[
				"夏",
				"季"
			],
			[
				"球",
				"員"
			],
			[
				"指",
				"出"
			],
			[
				"經",
				"常"
			],
			[
				"成",
				"績"
			],
			[
				"歌",
				"手"
			],
			[
				"博物",
				"館"
			],
			[
				"稱",
				"為"
			],
			[
				"規",
				"定"
			],
			[
				"十",
				"二"
			],
			[
				"地",
				"球"
			],
			[
				"目",
				"的"
			],
			[
				"漫",
				"畫"
			],
			[
				"基",
				"督"
			],
			[
				"約",
				"翰"
			],
			[
				"全",
				"部"
			],
			[
				"遭",
				"到"
			],
			[
				"名",
				"字"
			],
			[
				"定",
				"義"
			],
			[
				"風",
				"格"
			],
			[
				"投",
				"資"
			],
			[
				"紐",
				"約"
			],
			[
				"土",
				"地"
			],
			[
				"東",
				"部"
			],
			[
				"身",
				"份"
			],
			[
				"背",
				"景"
			],
			[
				"中",
				"文"
			],
			[
				"錦",
				"標"
			],
			[
				"西",
				"北"
			],
			[
				"年",
				"度"
			],
			[
				"郵",
				"政"
			],
			[
				"林",
				"匹"
			],
			[
				"實",
				"驗"
			],
			[
				"改",
				"革"
			],
			[
				"相",
				"同"
			],
			[
				"玩",
				"家"
			],
			[
				"飛",
				"機"
			],
			[
				"爆",
				"發"
			],
			[
				"爾",
				"斯"
			],
			[
				"每",
				"年"
			],
			[
				"方",
				"向"
			],
			[
				"大",
				"戰"
			],
			[
				"導",
				"演"
			],
			[
				"回",
				"到"
			],
			[
				"四",
				"川"
			],
			[
				"辦",
				"公"
			],
			[
				"曾",
				"任"
			],
			[
				"整",
				"個"
			],
			[
				"建",
				"造"
			],
			[
				"及",
				"其"
			],
			[
				"批",
				"評"
			],
			[
				"規",
				"劃"
			],
			[
				"過",
				"去"
			],
			[
				"也",
				"可"
			],
			[
				"細",
				"胞"
			],
			[
				"大",
				"型"
			],
			[
				"力",
				"量"
			],
			[
				"制",
				"度"
			],
			[
				"與",
				"其"
			],
			[
				"處",
				"於"
			],
			[
				"省",
				"級"
			],
			[
				"科",
				"技"
			],
			[
				"高",
				"速"
			],
			[
				"三",
				"十"
			],
			[
				"棲",
				"息"
			],
			[
				"立",
				"法"
			],
			[
				"林匹",
				"克"
			],
			[
				"檔",
				"案"
			],
			[
				"部",
				"門"
			],
			[
				"飛",
				"行"
			],
			[
				"戰",
				"役"
			],
			[
				"樂",
				"部"
			],
			[
				"越",
				"南"
			],
			[
				"還",
				"是"
			],
			[
				"學",
				"者"
			],
			[
				"經",
				"營"
			],
			[
				"然",
				"後"
			],
			[
				"境",
				"內"
			],
			[
				"取",
				"代"
			],
			[
				"特",
				"徵"
			],
			[
				"不",
				"久"
			],
			[
				"俱",
				"樂部"
			],
			[
				"群",
				"島"
			],
			[
				"奧",
				"林匹克"
			],
			[
				"相",
				"對"
			],
			[
				"普",
				"查"
			],
			[
				"希",
				"臘"
			],
			[
				"階",
				"段"
			],
			[
				"速",
				"度"
			],
			[
				"引",
				"起"
			],
			[
				"南",
				"京"
			],
			[
				"天",
				"津"
			],
			[
				"連",
				"續"
			],
			[
				"警",
				"察"
			],
			[
				"鄉",
				"鎮"
			],
			[
				"先",
				"後"
			],
			[
				"總",
				"面積"
			],
			[
				"閱",
				"讀"
			],
			[
				"陸",
				"軍"
			],
			[
				"領",
				"域"
			],
			[
				"第二",
				"次"
			],
			[
				"一",
				"部"
			],
			[
				"記",
				"者"
			],
			[
				"記",
				"載"
			],
			[
				"條",
				"件"
			],
			[
				"機",
				"車"
			],
			[
				"改",
				"變"
			],
			[
				"居",
				"住"
			],
			[
				"多",
				"次"
			],
			[
				"出",
				"身"
			],
			[
				"隸",
				"屬"
			],
			[
				"定",
				"向"
			],
			[
				"貿",
				"易"
			],
			[
				"網",
				"站"
			],
			[
				"原",
				"本"
			],
			[
				"生",
				"於"
			],
			[
				"明",
				"朝"
			],
			[
				"倫",
				"敦"
			],
			[
				"業",
				"務"
			],
			[
				"此",
				"後"
			],
			[
				"建",
				"議"
			],
			[
				"或",
				"者"
			],
			[
				"美",
				"洲"
			],
			[
				"狀",
				"態"
			],
			[
				"平",
				"臺"
			],
			[
				"分",
				"類"
			],
			[
				"物",
				"理"
			],
			[
				"作",
				"戰"
			],
			[
				"三",
				"年"
			],
			[
				"第",
				"五"
			],
			[
				"最",
				"早"
			],
			[
				"學",
				"位"
			],
			[
				"公",
				"尺"
			],
			[
				"新",
				"增"
			],
			[
				"日",
				"至"
			],
			[
				"廣",
				"場"
			],
			[
				"同",
				"樣"
			],
			[
				"汽",
				"車"
			],
			[
				"資",
				"源"
			],
			[
				"表",
				"演"
			],
			[
				"克",
				"斯"
			],
			[
				"人",
				"們"
			],
			[
				"比",
				"較"
			],
			[
				"毫",
				"米"
			],
			[
				"各",
				"地"
			],
			[
				"未",
				"來"
			],
			[
				"地",
				"位"
			],
			[
				"參",
				"賽"
			],
			[
				"流",
				"行"
			],
			[
				"雜",
				"誌"
			],
			[
				"分",
				"析"
			],
			[
				"爭",
				"議"
			],
			[
				"不",
				"少"
			],
			[
				"作",
				"曲"
			],
			[
				"資",
				"格"
			],
			[
				"作",
				"家"
			],
			[
				"有",
				"人"
			],
			[
				"十",
				"年"
			],
			[
				"經",
				"歷"
			],
			[
				"高",
				"中"
			],
			[
				"普",
				"通"
			],
			[
				"電視",
				"臺"
			],
			[
				"幾",
				"乎"
			],
			[
				"十",
				"分"
			],
			[
				"宣",
				"傳"
			],
			[
				"評",
				"論"
			],
			[
				"聯",
				"絡"
			],
			[
				"比",
				"亞"
			],
			[
				"減",
				"少"
			],
			[
				"準",
				"備"
			],
			[
				"人口",
				"普查"
			],
			[
				"運",
				"輸"
			],
			[
				"解放",
				"軍"
			],
			[
				"拒",
				"絕"
			],
			[
				"福",
				"建"
			],
			[
				"喜",
				"歡"
			],
			[
				"計",
				"畫"
			],
			[
				"圖",
				"書"
			],
			[
				"王",
				"國"
			],
			[
				"破",
				"壞"
			],
			[
				"錦標",
				"賽"
			],
			[
				"下",
				"的"
			],
			[
				"贏",
				"得"
			],
			[
				"任",
				"命"
			],
			[
				"加",
				"上"
			],
			[
				"儲",
				"存"
			],
			[
				"進",
				"士"
			],
			[
				"左",
				"右"
			],
			[
				"以",
				"後"
			],
			[
				"第",
				"一個"
			],
			[
				"一",
				"步"
			],
			[
				"醫",
				"學"
			],
			[
				"佔",
				"領"
			],
			[
				"地",
				"鐵"
			],
			[
				"農",
				"業"
			],
			[
				"這",
				"一"
			],
			[
				"大",
				"約"
			],
			[
				"展",
				"開"
			],
			[
				"少",
				"年"
			],
			[
				"每",
				"個"
			],
			[
				"車",
				"輛"
			],
			[
				"國",
				"會"
			],
			[
				"一",
				"定"
			],
			[
				"發",
				"射"
			],
			[
				"波",
				"蘭"
			],
			[
				"清",
				"朝"
			],
			[
				"郵政",
				"編碼"
			],
			[
				"貝",
				"爾"
			],
			[
				"內",
				"部"
			],
			[
				"教",
				"堂"
			],
			[
				"軟",
				"體"
			],
			[
				"加",
				"坡"
			],
			[
				"繼",
				"承"
			],
			[
				"精",
				"神"
			],
			[
				"兄",
				"弟"
			],
			[
				"記",
				"錄"
			],
			[
				"里",
				"斯"
			],
			[
				"病",
				"毒"
			],
			[
				"官",
				"員"
			],
			[
				"統",
				"一"
			],
			[
				"現",
				"時"
			],
			[
				"一",
				"家"
			],
			[
				"線",
				"路"
			],
			[
				"選",
				"手"
			],
			[
				"分",
				"子"
			],
			[
				"只",
				"是"
			],
			[
				"機",
				"關"
			],
			[
				"高",
				"階"
			],
			[
				"在",
				"日"
			],
			[
				"萬",
				"人"
			],
			[
				"廣",
				"泛"
			],
			[
				"國",
				"內"
			],
			[
				"組",
				"合"
			],
			[
				"女",
				"兒"
			],
			[
				"之",
				"外"
			],
			[
				"大",
				"樓"
			],
			[
				"多",
				"個"
			],
			[
				"實",
				"現"
			],
			[
				"初",
				"期"
			],
			[
				"新",
				"加坡"
			],
			[
				"保",
				"持"
			],
			[
				"北",
				"市"
			],
			[
				"分",
				"鐘"
			],
			[
				"快",
				"速"
			],
			[
				"治",
				"療"
			],
			[
				"至",
				"今"
			],
			[
				"拉",
				"斯"
			],
			[
				"小",
				"學"
			],
			[
				"和",
				"平"
			],
			[
				"星",
				"期"
			],
			[
				"基",
				"地"
			],
			[
				"評",
				"價"
			],
			[
				"長",
				"期"
			],
			[
				"訊",
				"息"
			],
			[
				"電視",
				"劇"
			],
			[
				"澳",
				"大"
			],
			[
				"葡",
				"萄"
			],
			[
				"娛",
				"樂"
			],
			[
				"城",
				"鎮"
			],
			[
				"旅",
				"遊"
			],
			[
				"朋",
				"友"
			],
			[
				"協",
				"議"
			],
			[
				"列",
				"表"
			],
			[
				"自",
				"動"
			],
			[
				"興",
				"建"
			],
			[
				"劇",
				"情"
			],
			[
				"馬來",
				"西亞"
			],
			[
				"大",
				"多數"
			],
			[
				"斯",
				"科"
			],
			[
				"限",
				"制"
			],
			[
				"解",
				"決"
			],
			[
				"河",
				"南"
			],
			[
				"概",
				"念"
			],
			[
				"巴",
				"西"
			],
			[
				"不",
				"斷"
			],
			[
				"出",
				"任"
			],
			[
				"分",
				"為"
			],
			[
				"太平",
				"洋"
			],
			[
				"曾",
				"在"
			],
			[
				"妻",
				"子"
			],
			[
				"委",
				"會"
			],
			[
				"投",
				"票"
			],
			[
				"超",
				"級"
			],
			[
				"實",
				"施"
			],
			[
				"時",
				"區"
			],
			[
				"荷",
				"蘭"
			],
			[
				"登",
				"場"
			],
			[
				"知",
				"道"
			],
			[
				"唱",
				"片"
			],
			[
				"此",
				"時"
			],
			[
				"董",
				"事"
			],
			[
				"基",
				"於"
			],
			[
				"兒",
				"童"
			],
			[
				"雲",
				"南"
			],
			[
				"統",
				"計"
			],
			[
				"條",
				"約"
			],
			[
				"雙",
				"方"
			],
			[
				"澳大",
				"利亞"
			],
			[
				"進",
				"攻"
			],
			[
				"截",
				"至"
			],
			[
				"英",
				"格蘭"
			],
			[
				"特",
				"殊"
			],
			[
				"教",
				"會"
			],
			[
				"起",
				"來"
			],
			[
				"為",
				"主"
			],
			[
				"交",
				"易"
			],
			[
				"江",
				"蘇"
			],
			[
				"座",
				"標"
			],
			[
				"訊",
				"號"
			],
			[
				"空",
				"軍"
			],
			[
				"水",
				"域"
			],
			[
				"都",
				"會"
			],
			[
				"返",
				"回"
			],
			[
				"綜",
				"合"
			],
			[
				"屬",
				"下"
			],
			[
				"皇",
				"帝"
			],
			[
				"公",
				"分"
			],
			[
				"伊",
				"斯"
			],
			[
				"盧",
				"瓦"
			],
			[
				"日",
				"起"
			],
			[
				"奧林匹克",
				"運動會"
			],
			[
				"是",
				"否"
			],
			[
				"集",
				"中"
			],
			[
				"年",
				"輕"
			],
			[
				"因",
				"而"
			],
			[
				"頻",
				"道"
			],
			[
				"同",
				"意"
			],
			[
				"有",
				"些"
			],
			[
				"秘",
				"書"
			],
			[
				"又",
				"稱"
			],
			[
				"思",
				"想"
			],
			[
				"如",
				"下"
			],
			[
				"基",
				"金"
			],
			[
				"身",
				"體"
			],
			[
				"結",
				"婚"
			],
			[
				"研究",
				"所"
			],
			[
				"喬",
				"治"
			],
			[
				"艦",
				"隊"
			],
			[
				"元",
				"素"
			],
			[
				"將",
				"其"
			],
			[
				"維",
				"持"
			],
			[
				"邀",
				"請"
			],
			[
				"不",
				"明"
			],
			[
				"二",
				"世"
			],
			[
				"湖",
				"南"
			],
			[
				"巴",
				"黎"
			],
			[
				"一",
				"顆"
			],
			[
				"批",
				"准"
			],
			[
				"小",
				"組"
			],
			[
				"猶",
				"太"
			],
			[
				"改",
				"編"
			],
			[
				"臨",
				"時"
			],
			[
				"教",
				"區"
			],
			[
				"始",
				"建"
			],
			[
				"可",
				"達"
			],
			[
				"一",
				"場"
			],
			[
				"程",
				"度"
			],
			[
				"從",
				"事"
			],
			[
				"觀",
				"眾"
			],
			[
				"方",
				"案"
			],
			[
				"證",
				"明"
			],
			[
				"飾",
				"演"
			],
			[
				"產",
				"業"
			],
			[
				"函",
				"式"
			],
			[
				"承",
				"認"
			],
			[
				"孩",
				"子"
			],
			[
				"祖",
				"父"
			],
			[
				"首",
				"都"
			],
			[
				"自治",
				"區"
			],
			[
				"襲",
				"擊"
			],
			[
				"試",
				"圖"
			],
			[
				"配",
				"音"
			],
			[
				"國",
				"立"
			],
			[
				"金",
				"屬"
			],
			[
				"宣",
				"告"
			],
			[
				"材",
				"料"
			],
			[
				"解",
				"釋"
			],
			[
				"討",
				"論"
			],
			[
				"勝",
				"利"
			],
			[
				"不",
				"可"
			],
			[
				"國",
				"務"
			],
			[
				"佛",
				"教"
			],
			[
				"總",
				"理"
			],
			[
				"殖",
				"民"
			],
			[
				"針",
				"對"
			],
			[
				"大",
				"使"
			],
			[
				"出",
				"來"
			],
			[
				"河",
				"流"
			],
			[
				"不",
				"再"
			],
			[
				"逝",
				"世"
			],
			[
				"正",
				"在"
			],
			[
				"本",
				"地"
			],
			[
				"未",
				"能"
			],
			[
				"投",
				"入"
			],
			[
				"日",
				"軍"
			],
			[
				"國民",
				"黨"
			],
			[
				"有",
				"效"
			],
			[
				"衛",
				"生"
			],
			[
				"英",
				"文"
			],
			[
				"就",
				"讀"
			],
			[
				"核",
				"心"
			],
			[
				"電",
				"腦"
			],
			[
				"變",
				"成"
			],
			[
				"西",
				"洋"
			],
			[
				"價",
				"值"
			],
			[
				"總",
				"部"
			],
			[
				"失",
				"去"
			],
			[
				"人",
				"數"
			],
			[
				"東",
				"西"
			],
			[
				"維",
				"爾"
			],
			[
				"衝",
				"突"
			],
			[
				"塞",
				"爾"
			],
			[
				"停",
				"止"
			],
			[
				"進",
				"一步"
			],
			[
				"運",
				"營"
			],
			[
				"而",
				"是"
			],
			[
				"名",
				"為"
			],
			[
				"確",
				"定"
			],
			[
				"鐵",
				"道"
			],
			[
				"名",
				"單"
			],
			[
				"第",
				"六"
			],
			[
				"氧",
				"化"
			],
			[
				"看",
				"到"
			],
			[
				"取",
				"消"
			],
			[
				"或",
				"是"
			],
			[
				"皇",
				"家"
			],
			[
				"訪",
				"問"
			],
			[
				"接",
				"近"
			],
			[
				"半",
				"島"
			],
			[
				"公",
				"民"
			],
			[
				"武",
				"裝"
			],
			[
				"南",
				"極"
			],
			[
				"交",
				"流"
			],
			[
				"高",
				"等"
			],
			[
				"著",
				"作"
			],
			[
				"生",
				"長"
			],
			[
				"校",
				"長"
			],
			[
				"奧",
				"斯"
			],
			[
				"測",
				"試"
			],
			[
				"樂",
				"團"
			],
			[
				"效",
				"力"
			],
			[
				"山",
				"脈"
			],
			[
				"圖書",
				"館"
			],
			[
				"重",
				"點"
			],
			[
				"收",
				"錄"
			],
			[
				"天",
				"主教"
			],
			[
				"感",
				"染"
			],
			[
				"機",
				"會"
			],
			[
				"數",
				"學"
			],
			[
				"狀",
				"況"
			],
			[
				"一",
				"同"
			],
			[
				"的",
				"歷"
			],
			[
				"申",
				"請"
			],
			[
				"事",
				"業"
			],
			[
				"一",
				"世"
			],
			[
				"通",
				"訊"
			],
			[
				"卡",
				"爾"
			],
			[
				"王",
				"朝"
			],
			[
				"重",
				"建"
			],
			[
				"上",
				"映"
			],
			[
				"所",
				"在"
			],
			[
				"流",
				"域"
			],
			[
				"安",
				"排"
			],
			[
				"議",
				"院"
			],
			[
				"恆",
				"星"
			],
			[
				"主",
				"演"
			],
			[
				"失",
				"敗"
			],
			[
				"到",
				"達"
			],
			[
				"旗",
				"下"
			],
			[
				"地",
				"利"
			],
			[
				"保",
				"留"
			],
			[
				"非",
				"洲"
			],
			[
				"文",
				"字"
			],
			[
				"調",
				"整"
			],
			[
				"世界",
				"大戰"
			],
			[
				"銷",
				"售"
			],
			[
				"醫",
				"療"
			],
			[
				"再",
				"度"
			],
			[
				"同",
				"一"
			],
			[
				"物",
				"質"
			],
			[
				"多",
				"年"
			],
			[
				"山",
				"西"
			],
			[
				"提",
				"名"
			],
			[
				"早",
				"年"
			],
			[
				"移",
				"動"
			],
			[
				"哲",
				"學"
			],
			[
				"啟",
				"用"
			],
			[
				"威",
				"廉"
			],
			[
				"機",
				"械"
			],
			[
				"感",
				"到"
			],
			[
				"憲",
				"法"
			],
			[
				"民",
				"眾"
			],
			[
				"更",
				"名"
			],
			[
				"常",
				"見"
			],
			[
				"職",
				"務"
			],
			[
				"直",
				"至"
			],
			[
				"國",
				"防"
			],
			[
				"命",
				"令"
			],
			[
				"年",
				"中"
			],
			[
				"現",
				"場"
			],
			[
				"用",
				"來"
			],
			[
				"警",
				"方"
			],
			[
				"報",
				"道"
			],
			[
				"編",
				"號"
			],
			[
				"西",
				"方"
			],
			[
				"法",
				"蘭"
			],
			[
				"戰",
				"後"
			],
			[
				"創",
				"立"
			],
			[
				"電",
				"臺"
			],
			[
				"應",
				"該"
			],
			[
				"五",
				"年"
			],
			[
				"穩",
				"定"
			],
			[
				"物",
				"件"
			],
			[
				"播",
				"放"
			],
			[
				"創",
				"辦"
			],
			[
				"現",
				"象"
			],
			[
				"引",
				"發"
			],
			[
				"尚",
				"未"
			],
			[
				"觀",
				"察"
			],
			[
				"考",
				"慮"
			],
			[
				"健",
				"康"
			],
			[
				"課",
				"程"
			],
			[
				"教",
				"練"
			],
			[
				"全",
				"長"
			],
			[
				"第",
				"七"
			],
			[
				"一",
				"度"
			],
			[
				"英",
				"語"
			],
			[
				"奧",
				"地利"
			],
			[
				"遺",
				"址"
			],
			[
				"質",
				"量"
			],
			[
				"四",
				"個"
			],
			[
				"團",
				"隊"
			],
			[
				"高",
				"雄"
			],
			[
				"結",
				"合"
			],
			[
				"爾",
				"德"
			],
			[
				"海",
				"岸"
			],
			[
				"巨",
				"大"
			],
			[
				"翻",
				"譯"
			],
			[
				"生",
				"命"
			],
			[
				"四",
				"年"
			],
			[
				"提",
				"高"
			],
			[
				"關",
				"注"
			],
			[
				"廣",
				"告"
			],
			[
				"有",
				"時"
			],
			[
				"以",
				"前"
			],
			[
				"對",
				"手"
			],
			[
				"只",
				"能"
			],
			[
				"少",
				"數"
			],
			[
				"鎮",
				"區"
			],
			[
				"發",
				"出"
			],
			[
				"高",
				"的"
			],
			[
				"森",
				"林"
			],
			[
				"以",
				"外"
			],
			[
				"地",
				"面"
			],
			[
				"構",
				"成"
			],
			[
				"收",
				"入"
			],
			[
				"一",
				"項"
			],
			[
				"風",
				"暴"
			],
			[
				"召",
				"開"
			],
			[
				"瑞",
				"典"
			],
			[
				"出",
				"口"
			],
			[
				"歡",
				"迎"
			],
			[
				"不",
				"得"
			],
			[
				"這",
				"裡"
			],
			[
				"如",
				"此"
			],
			[
				"阿拉",
				"伯"
			],
			[
				"介",
				"紹"
			],
			[
				"體",
				"系"
			],
			[
				"重",
				"慶"
			],
			[
				"瑞",
				"士"
			],
			[
				"地",
				"點"
			],
			[
				"中",
				"山"
			],
			[
				"一",
				"段"
			],
			[
				"聯合",
				"國"
			],
			[
				"移",
				"民"
			],
			[
				"氣",
				"象"
			],
			[
				"衛",
				"星"
			],
			[
				"創",
				"造"
			],
			[
				"入",
				"侵"
			],
			[
				"明",
				"顯"
			],
			[
				"帶",
				"來"
			],
			[
				"兩",
				"種"
			],
			[
				"時",
				"任"
			],
			[
				"馬",
				"克"
			],
			[
				"合",
				"物"
			],
			[
				"隧",
				"道"
			],
			[
				"什",
				"麼"
			],
			[
				"維",
				"亞"
			],
			[
				"江",
				"西"
			],
			[
				"體",
				"長"
			],
			[
				"一",
				"帶"
			],
			[
				"人",
				"大"
			],
			[
				"注",
				"意"
			],
			[
				"之",
				"下"
			],
			[
				"大",
				"臣"
			],
			[
				"來",
				"說"
			],
			[
				"模",
				"型"
			],
			[
				"伊斯",
				"蘭"
			],
			[
				"氣",
				"候"
			],
			[
				"籃",
				"球"
			],
			[
				"文",
				"章"
			],
			[
				"表",
				"面"
			],
			[
				"並",
				"將"
			],
			[
				"來",
				"到"
			],
			[
				"相",
				"似"
			],
			[
				"從",
				"而"
			],
			[
				"紅",
				"色"
			],
			[
				"性",
				"質"
			],
			[
				"市",
				"長"
			],
			[
				"挑",
				"戰"
			],
			[
				"允",
				"許"
			],
			[
				"中",
				"部"
			],
			[
				"知",
				"名"
			],
			[
				"這",
				"次"
			],
			[
				"意",
				"識"
			],
			[
				"特",
				"色"
			],
			[
				"避",
				"免"
			],
			[
				"建",
				"成"
			],
			[
				"學",
				"術"
			],
			[
				"曾",
				"代表"
			],
			[
				"撤",
				"銷"
			],
			[
				"說",
				"法"
			],
			[
				"禁",
				"止"
			],
			[
				"傳",
				"說"
			],
			[
				"在",
				"內"
			],
			[
				"權",
				"力"
			],
			[
				"學",
				"會"
			],
			[
				"客",
				"運"
			],
			[
				"平方",
				"米"
			],
			[
				"簡",
				"介"
			],
			[
				"是",
				"日"
			],
			[
				"尤",
				"其"
			],
			[
				"給",
				"予"
			],
			[
				"至",
				"少"
			],
			[
				"南",
				"北"
			],
			[
				"編",
				"輯"
			],
			[
				"儀",
				"式"
			],
			[
				"市",
				"民"
			],
			[
				"放",
				"棄"
			],
			[
				"並",
				"未"
			],
			[
				"維",
				"基"
			],
			[
				"天",
				"文"
			],
			[
				"政",
				"黨"
			],
			[
				"是",
				"以"
			],
			[
				"病",
				"例"
			],
			[
				"找",
				"到"
			],
			[
				"幾",
				"個"
			],
			[
				"路",
				"易"
			],
			[
				"之",
				"中"
			],
			[
				"得",
				"以"
			],
			[
				"本",
				"身"
			],
			[
				"容",
				"易"
			],
			[
				"發",
				"售"
			],
			[
				"引",
				"擎"
			],
			[
				"主",
				"張"
			],
			[
				"不",
				"足"
			],
			[
				"辦公",
				"室"
			],
			[
				"少",
				"女"
			],
			[
				"海",
				"域"
			],
			[
				"簡",
				"稱"
			],
			[
				"當",
				"年"
			],
			[
				"某",
				"些"
			],
			[
				"總",
				"督"
			],
			[
				"區",
				"的"
			],
			[
				"確",
				"診"
			],
			[
				"普",
				"遍"
			],
			[
				"財",
				"政"
			],
			[
				"現",
				"任"
			],
			[
				"提",
				"升"
			],
			[
				"動",
				"力"
			],
			[
				"泰",
				"國"
			],
			[
				"東",
				"方"
			],
			[
				"有",
				"所"
			],
			[
				"接",
				"觸"
			],
			[
				"實際",
				"上"
			],
			[
				"英",
				"雄"
			],
			[
				"克",
				"拉"
			],
			[
				"新",
				"疆"
			],
			[
				"深",
				"圳"
			],
			[
				"臺",
				"北市"
			],
			[
				"抵",
				"達"
			],
			[
				"規",
				"則"
			],
			[
				"事",
				"實"
			],
			[
				"酒",
				"店"
			],
			[
				"其",
				"它"
			],
			[
				"金",
				"牌"
			],
			[
				"國務",
				"院"
			],
			[
				"威",
				"脅"
			],
			[
				"候",
				"選"
			],
			[
				"年",
				"時"
			],
			[
				"颱",
				"風"
			],
			[
				"發",
				"電"
			],
			[
				"乘",
				"客"
			],
			[
				"增",
				"長"
			],
			[
				"西",
				"哥"
			],
			[
				"強",
				"烈"
			],
			[
				"薩",
				"克"
			],
			[
				"古",
				"代"
			],
			[
				"和",
				"一"
			],
			[
				"駕",
				"駛"
			],
			[
				"發",
				"起"
			],
			[
				"周",
				"邊"
			],
			[
				"工",
				"人"
			],
			[
				"旅",
				"客"
			],
			[
				"爾",
				"蘭"
			],
			[
				"律",
				"賓"
			],
			[
				"金",
				"融"
			],
			[
				"西",
				"藏"
			],
			[
				"父",
				"母"
			],
			[
				"表",
				"達"
			],
			[
				"騎",
				"士"
			],
			[
				"公",
				"主"
			],
			[
				"指",
				"定"
			],
			[
				"全",
				"面"
			],
			[
				"菲",
				"律賓"
			],
			[
				"股",
				"份"
			],
			[
				"記",
				"憶"
			],
			[
				"的",
				"實"
			],
			[
				"北",
				"起"
			],
			[
				"河",
				"北"
			],
			[
				"來",
				"的"
			],
			[
				"又",
				"名"
			],
			[
				"十",
				"六"
			],
			[
				"羽",
				"毛"
			],
			[
				"並",
				"非"
			],
			[
				"宇",
				"宙"
			],
			[
				"貢",
				"獻"
			],
			[
				"市",
				"區"
			],
			[
				"才",
				"能"
			],
			[
				"配",
				"合"
			],
			[
				"華",
				"人"
			],
			[
				"院",
				"長"
			],
			[
				"積",
				"極"
			],
			[
				"一",
				"系列"
			],
			[
				"專",
				"家"
			],
			[
				"將",
				"會"
			],
			[
				"大",
				"西洋"
			],
			[
				"建",
				"制"
			],
			[
				"部",
				"份"
			],
			[
				"競",
				"爭"
			],
			[
				"輻",
				"鰭"
			],
			[
				"意",
				"義"
			],
			[
				"疫",
				"情"
			],
			[
				"採",
				"取"
			],
			[
				"臺",
				"中"
			],
			[
				"榮",
				"譽"
			],
			[
				"改",
				"造"
			],
			[
				"政",
				"權"
			],
			[
				"下",
				"屬"
			],
			[
				"營",
				"運"
			],
			[
				"安",
				"德"
			],
			[
				"奪",
				"得"
			],
			[
				"後",
				"期"
			],
			[
				"當",
				"局"
			],
			[
				"工",
				"廠"
			],
			[
				"其",
				"餘"
			],
			[
				"品",
				"牌"
			],
			[
				"參",
				"考"
			],
			[
				"不",
				"滿"
			],
			[
				"魔",
				"法"
			],
			[
				"授",
				"予"
			],
			[
				"電",
				"力"
			],
			[
				"打",
				"擊"
			],
			[
				"一",
				"切"
			],
			[
				"教",
				"師"
			],
			[
				"安",
				"裝"
			],
			[
				"威",
				"爾"
			],
			[
				"年",
				"成"
			],
			[
				"傳",
				"播"
			],
			[
				"特",
				"定"
			],
			[
				"迅",
				"速"
			],
			[
				"購",
				"買"
			],
			[
				"數",
				"字"
			],
			[
				"民",
				"間"
			],
			[
				"澳",
				"洲"
			],
			[
				"埃",
				"及"
			],
			[
				"理",
				"事"
			],
			[
				"九",
				"龍"
			],
			[
				"武",
				"漢"
			],
			[
				"教",
				"學"
			],
			[
				"公",
				"眾"
			],
			[
				"作",
				"出"
			],
			[
				"字",
				"母"
			],
			[
				"機",
				"器"
			],
			[
				"安",
				"徽"
			],
			[
				"估",
				"計"
			],
			[
				"本",
				"土"
			],
			[
				"外",
				"國"
			],
			[
				"出",
				"道"
			],
			[
				"億",
				"元"
			],
			[
				"美",
				"術"
			],
			[
				"入",
				"選"
			],
			[
				"舞",
				"臺"
			],
			[
				"如",
				"何"
			],
			[
				"年",
				"齡"
			],
			[
				"哈",
				"爾"
			],
			[
				"愛",
				"爾蘭"
			],
			[
				"表",
				"明"
			],
			[
				"米",
				"爾"
			],
			[
				"勢",
				"力"
			],
			[
				"達",
				"成"
			],
			[
				"吸",
				"引"
			],
			[
				"湖",
				"北"
			],
			[
				"墨",
				"西哥"
			],
			[
				"建",
				"於"
			],
			[
				"實",
				"行"
			],
			[
				"晚",
				"上"
			],
			[
				"改",
				"名"
			],
			[
				"本",
				"站"
			],
			[
				"按",
				"照"
			],
			[
				"兩",
				"年"
			],
			[
				"耳",
				"其"
			],
			[
				"廣東",
				"省"
			],
			[
				"隊",
				"伍"
			],
			[
				"得",
				"知"
			],
			[
				"尼",
				"斯"
			],
			[
				"很",
				"大"
			],
			[
				"地",
				"震"
			],
			[
				"白",
				"色"
			],
			[
				"部",
				"落"
			],
			[
				"措",
				"施"
			],
			[
				"代表",
				"大會"
			],
			[
				"率",
				"領"
			],
			[
				"姆",
				"斯"
			],
			[
				"蛋",
				"白"
			],
			[
				"恩",
				"省"
			],
			[
				"作",
				"者"
			],
			[
				"海",
				"外"
			],
			[
				"推",
				"動"
			],
			[
				"那",
				"裡"
			],
			[
				"工",
				"具"
			],
			[
				"完",
				"整"
			],
			[
				"太",
				"空"
			],
			[
				"東",
				"北部"
			],
			[
				"律",
				"師"
			],
			[
				"標",
				"誌"
			],
			[
				"壓",
				"力"
			],
			[
				"即",
				"使"
			],
			[
				"缺",
				"乏"
			],
			[
				"以",
				"色"
			],
			[
				"土",
				"耳其"
			],
			[
				"簡",
				"單"
			],
			[
				"基",
				"因"
			],
			[
				"觀",
				"點"
			],
			[
				"一",
				"級"
			],
			[
				"智",
				"慧"
			],
			[
				"局",
				"長"
			],
			[
				"心",
				"理"
			],
			[
				"萬",
				"元"
			],
			[
				"陝",
				"西"
			],
			[
				"公",
				"元"
			],
			[
				"因",
				"素"
			],
			[
				"經",
				"驗"
			],
			[
				"邊",
				"界"
			],
			[
				"抗",
				"日"
			],
			[
				"年",
				"底"
			],
			[
				"蒙",
				"古"
			],
			[
				"伊",
				"朗"
			],
			[
				"十",
				"字"
			],
			[
				"意",
				"見"
			],
			[
				"歲",
				"時"
			],
			[
				"秘",
				"密"
			],
			[
				"變",
				"得"
			],
			[
				"專",
				"門"
			],
			[
				"複",
				"雜"
			],
			[
				"受",
				"傷"
			],
			[
				"二",
				"年"
			],
			[
				"案",
				"件"
			],
			[
				"拉",
				"克"
			],
			[
				"效",
				"果"
			],
			[
				"南",
				"方"
			],
			[
				"顧",
				"問"
			],
			[
				"涉",
				"及"
			],
			[
				"面",
				"對"
			],
			[
				"真",
				"正"
			],
			[
				"疾",
				"病"
			],
			[
				"需",
				"求"
			],
			[
				"基督",
				"教"
			],
			[
				"權",
				"利"
			],
			[
				"食",
				"物"
			],
			[
				"原",
				"始"
			],
			[
				"海",
				"洋"
			],
			[
				"裝",
				"備"
			],
			[
				"更",
				"加"
			],
			[
				"伯",
				"特"
			],
			[
				"編",
				"曲"
			],
			[
				"下",
				"來"
			],
			[
				"十",
				"八"
			],
			[
				"責",
				"任"
			],
			[
				"被",
				"迫"
			],
			[
				"種",
				"族"
			],
			[
				"輸",
				"入"
			],
			[
				"住",
				"宅"
			],
			[
				"水",
				"平"
			],
			[
				"操",
				"作"
			],
			[
				"樂",
				"隊"
			],
			[
				"確",
				"認"
			],
			[
				"黑",
				"色"
			],
			[
				"元",
				"年"
			],
			[
				"南",
				"至"
			],
			[
				"更",
				"新"
			],
			[
				"大",
				"小"
			],
			[
				"碩",
				"士"
			],
			[
				"戲",
				"劇"
			],
			[
				"展",
				"示"
			],
			[
				"出",
				"席"
			],
			[
				"彼",
				"得"
			],
			[
				"三",
				"角"
			],
			[
				"簽",
				"署"
			],
			[
				"領",
				"袖"
			],
			[
				"日",
				"報"
			],
			[
				"陸",
				"地"
			],
			[
				"報",
				"導"
			],
			[
				"領",
				"土"
			],
			[
				"重",
				"大"
			],
			[
				"生",
				"態"
			],
			[
				"原",
				"子"
			],
			[
				"內",
				"陸"
			],
			[
				"後",
				"者"
			],
			[
				"其",
				"實"
			],
			[
				"球",
				"會"
			],
			[
				"匈",
				"牙"
			],
			[
				"世界",
				"盃"
			],
			[
				"社會",
				"主義"
			],
			[
				"辦",
				"事"
			],
			[
				"東",
				"南部"
			],
			[
				"多",
				"種"
			],
			[
				"收",
				"購"
			],
			[
				"大",
				"道"
			],
			[
				"奧運",
				"會"
			],
			[
				"殺",
				"死"
			],
			[
				"西",
				"北部"
			],
			[
				"擴",
				"大"
			],
			[
				"相",
				"比"
			],
			[
				"抗",
				"議"
			],
			[
				"改",
				"善"
			],
			[
				"等",
				"等"
			],
			[
				"作",
				"詞"
			],
			[
				"裝",
				"甲"
			],
			[
				"藥",
				"物"
			],
			[
				"混",
				"合"
			],
			[
				"經",
				"理"
			],
			[
				"事",
				"故"
			],
			[
				"延",
				"伸"
			],
			[
				"指",
				"導"
			],
			[
				"能",
				"量"
			],
			[
				"先",
				"生"
			],
			[
				"斯",
				"克"
			],
			[
				"正",
				"常"
			],
			[
				"瞭",
				"解"
			],
			[
				"中",
				"間"
			],
			[
				"魚",
				"綱"
			],
			[
				"貴",
				"族"
			],
			[
				"情",
				"報"
			],
			[
				"眾",
				"多"
			],
			[
				"歷",
				"山"
			],
[...]
